▁, 875816
▁ 747307
s 580470
▁. 388344
的 335265
▁the 317119
▁。 246633
▁and 224920
▁to 211461
▁a 201467
t 178306
' 176287
▁of 173534
▁in 149955
▁that 141550
▁i 131900
▁it 112920
ing 110351
▁we 108384
d 103113
re 101316
▁you 100917
▁is 95046
ed 87139
在 80225
是 75990
e 71506
▁this 69739
n 69590
m 68881
▁" 68468
▁? 68303
了 66318
▁so 63666
y 63254
▁我 62579
▁for 53571
我 53002
ly 51704
er 51323
有 51199
: 49773
▁they 48959
不 47497
▁was 47187
▁我們 46895
人 46820
我們 46557
c 46501
▁are 46424
o 45072
一 44321
▁be 43066
▁but 42902
和 41679
▁have 41591
al 41456
▁on 41411
會 40125
▁with 39520
▁what 38541
▁can 38538
、 37904
上 37823
▁as 36954
g 35581
le 33877
到 33869
ri 32534
▁at 32510
a 32434
▁do 32413
大 31642
來 31632
ve 31579
or 31242
▁about 30634
▁not 29999
▁there 29857
ic 29834
▁my 29772
ion 29361
你 29271
th 29269
▁all 29120
▁me 28737
說 28677
一個 27551
▁one 27462
中 27181
ar 26805
▁p 26677
b 26487
▁like 26487
▁or 26452
要 26359
ll 26283
▁an 26267
ur 26172
很 26082
r 26053
這 25995
▁de 25897
▁people 25544
▁he 25150
▁our 25143
in 24995
ent 24954
對 24868
es 24725
▁「 24691
▁」 24600
▁from 24324
▁f 24063
▁if 24036
能 23755
li 23386
en 23143
ation 22999
ce 22945
▁e 22793
用 22666
h 22211
都 22168
時 21951
▁when 21825
▁just 21608
u 21498
ter 21415
他們 21246
地 21241
▁在 20798
▁now 20735
出 20698
▁con 20656
▁these 20650
p 20447
▁st 20355
te 20269
好 20264
就 20010
it 20003
▁這 19796
▁know 19792
▁out 19715
ch 19692
▁us 19688
ate 19682
年 19641
▁但 19596
去 19565
可以 19507
▁by 19268
所 19066
▁how 19034
被 19004
▁because 18911
f 18653
也 18648
▁up 18645
子 18583
這些 18485
這個 18365
▁你 18233
做 18219
k 18091
▁more 17956
il 17915
▁them 17860
on 17749
▁their 17674
為 17387
▁who 17326
un 17159
▁your 17144
▁had 16893
著 16749
▁see 16683
very 16630
過 16616
▁c 16557
下 16513
▁no 16404
ne 16391
▁were 16364
▁would 16286
它 16142
w 16060
ity 15964
把 15722
▁他們 15649
多 15618
想 15611
沒有 15599
▁going 15506
他 15166
▁think 15141
▁get 15054
ra 15017
更 14908
於 14889
ers 14882
an 14865
最 14776
ive 14740
從 14722
成 14690
以 14596
▁some 14541
el 14360
ment 14352
小 14229
▁go 14195
▁which 14156
▁ex 14078
體 14014
生 13950
▁world 13782
▁way 13773
▁time 13769
id 13717
看 13692
i 13685
as 13592
ul 13589
個 13564
▁really 13531
ol 13529
▁other 13527
裡 13314
得 13239
▁here 13229
者 13224
性 13210
▁co 13125
▁b 13035
▁then 13011
▁make 12996
▁has 12837
ci 12755
將 12718
▁mo 12701
▁所以 12697
▁will 12692
與 12623
▁don 12606
ro 12601
ies 12590
開始 12451
ge 12414
▁into 12390
的人 12390
而 12348
家 12190
tic 12070
▁w 12044
▁where 11867
▁she 11846
讓 11800
心 11722
就是 11528
面 11524
ver 11520
▁could 11510
▁po 11508
est 11488
那 11457
ck 11445
知道 11424
▁di 11333
▁un 11330
行 11271
力 11269
z 11205
▁years 11205
▁look 11173
▁even 11154
ru 11100
com 11032
▁want 11028
▁work 11003
▁sp 10965
▁他 10962
▁因為 10929
後 10919
▁need 10914
▁su 10902
▁new 10896
之 10892
x 10890
可 10858
de 10841
▁actually 10812
非常 10810
op 10804
或 10802
分 10785
▁right 10692
▁over 10686
給 10674
▁g 10666
ir 10574
需要 10574
像 10561
▁been 10558
la 10530
▁這是 10518
▁things 10508
比 10457
▁而 10446
v 10436
▁它 10277
點 10264
不是 10247
age 10229
ted 10211
數 10189
lo 10177
▁well 10150
▁pro 10146
vi 10125
able 10123
還 10069
▁ma 10060
us 9996
化 9985
those 9973
高 9949
▁ba 9932
ph 9912
ist 9857
▁first 9834
天 9711
l 9706
▁than 9698
lu 9642
長 9634
斯 9595
動 9588
ting 9583
to 9548
我的 9533
法 9474
tra 9449
ical 9415
▁say 9400
ect 9399
ac 9398
▁; 9364
ant 9352
▁vi 9302
▁two 9294
▁her 9290
at 9246
同 9241
發 9240
ig 9230
▁dis 9218
▁also 9216
▁his 9213
ha 9212
um 9192
開 9188
pe 9181
ad 9155
ma 9155
手 9136
機 9136
▁most 9118
ok 9097
自己 9028
學 9023
▁back 8996
進 8985
▁! 8960
▁something 8944
▁ra 8919
什麼 8910
當 8905
ction 8893
▁life 8890
mp 8863
位 8803
ence 8793
加 8793
5 8792
▁take 8791
ry 8767
事 8718
前 8718
特 8709
. 8684
▁any 8589
可能 8578
無 8548
▁much 8521
度 8489
公 8467
▁br 8452
▁bo 8440
ance 8417
一些 8406
如何 8402
fe 8386
▁come 8385
合 8381
▁said 8358
水 8352
▁ro 8343
量 8342
外 8319
▁only 8311
▁part 8280
▁many 8269
相 8266
▁every 8239
ng 8220
mo 8194
na 8176
▁sh 8166
問題 8155
pt 8152
入 8145
看到 8142
is 8127
qu 8102
種 8091
im 8076
嗎 8071
已經 8024
再 8015
作 8005
物 7994
cu 7942
我們的 7941
發現 7897
▁ho 7883
那些 7873
ally 7863
這樣 7862
研究 7860
ug 7844
正 7782
▁got 7780
ff 7749
感 7742
名 7721
▁talk 7720
本 7710
▁li 7682
▁lot 7669
▁let 7647
▁有 7624
回 7608
co 7601
▁thing 7589
ld 7583
氣 7583
▁ca 7568
理 7538
放 7518
她 7492
ti 7482
▁se 7482
兩 7478
▁little 7443
▁kind 7436
及 7433
▁human 7425
沒 7424
sh 7420
min 7399
and 7357
bi 7349
這種 7308
自 7305
▁但是 7288
ut 7287
國 7287
一樣 7280
les 7268
ated 7265
po 7264
業 7264
跟 7258
em 7253
ow 7250
世界 7246
頭 7238
iv 7236
2 7217
部 7202
內 7169
▁car 7164
起 7155
現在 7147
app 7136
只 7136
▁sc 7107
0 7094
意 7087
的是 7062
▁different 7042
平 7041
發生 7025
利 7018
▁good 7009
▁pre 6998
向 6992
▁through 6991
改變 6985
no 6978
▁la 6971
▁這些 6937
你們 6920
▁然後 6878
ous 6858
ine 6854
愛 6844
▁why 6835
▁did 6817
見 6813
如 6802
克 6790
新 6777
教 6742
期 6739
場 6716
常 6713
me 6709
▁use 6700
▁around 6698
▁being 6671
end 6669
間 6660
道 6658
圖 6643
美 6633
方 6608
cr 6601
重 6585
▁show 6550
其他 6541
定 6539
色 6535
美國 6529
先 6517
國家 6510
▁da 6493
▁down 6491
使 6487
工 6461
▁tell 6455
拉 6449
身 6446
▁j 6387
三 6378
人們 6371
▁她 6353
真的 6344
ke 6334
▁ta 6324
pa 6314
▁現在 6297
所有 6296
處 6262
ia 6243
4 6237
▁same 6233
if 6229
車 6224
▁idea 6211
▁是 6201
人類 6197
ain 6180
ful 6159
工作 6142
ty 6127
▁那 6126
打 6121
ni 6115
am 6096
▁gr 6094
問 6089
fi 6082
di 6078
幾 6054
你的 6044
邊 6029
爾 6026
十 6006
▁comp 6005
走 6003
os 5997
帶 5996
次 5987
▁如果 5985
使用 5982
▁k 5975
光 5974
信 5948
ho 5947
mi 5943
星 5943
明 5937
然 5935
聽 5932
▁change 5912
達 5905
▁day 5892
太 5887
不會 5882
因為 5877
he 5868
▁put 5841
呢 5835
每 5826
9 5820
tu 5804
認為 5799
▁lo 5791
受 5741
che 5739
▁after 5710
能夠 5695
▁這個 5692
任何 5689
轉 5666
海 5664
▁big 5662
文 5642
全 5638
▁fact 5631
保 5626
此 5613
ary 5610
▁dr 5593
▁find 5587
▁try 5580
▁system 5577
才 5571
金 5557
▁start 5556
j 5554
50 5552
ot 5544
-- 5543
cy 5530
▁great 5525
ag 5516
ite 5514
線 5493
花 5491
表 5482
▁thank 5481
▁three 5473
它們 5457
想要 5457
其 5446
原 5421
兒 5420
▁help 5418
par 5416
又 5408
演 5399
許多 5396
▁off 5388
設計 5383
▁place 5382
ian 5377
視 5364
▁r 5357
談 5353
ness 5345
電 5324
大家 5317
▁today 5314
▁mean 5302
民 5280
ition 5278
實 5276
ish 5272
ize 5251
由 5241
▁per 5234
▁own 5233
▁called 5215
孩子 5210
亞 5190
代 5182
情 5170
bo 5167
ab 5158
字 5158
ual 5152
▁doing 5142
ors 5138
都是 5106
▁question 5094
▁就 5087
一種 5079
提 5075
ber 5064
時間 5061
流 5057
bu 5053
系統 5036
▁percent 5027
路 5022
無法 5018
類 5012
▁al 5009
7 5005
收 5003
8 4995
交 4994
ev 4984
▁made 4984
的時候 4984
主 4978
▁should 4962
馬 4936
▁end 4927
形 4920
只是 4919
mer 4914
應該 4914
▁give 4904
器 4904
四 4899
▁man 4896
群 4895
西 4886
書 4878
1 4866
德 4858
傳 4857
變 4848
▁si 4845
ture 4817
der 4813
寫 4811
等 4811
知 4806
萬 4804
3 4800
▁real 4796
led 4792
希望 4784
因 4783
現 4776
白 4775
fa 4768
▁high 4759
卻 4750
▁didn 4741
通 4737
五 4734
日 4729
必須 4724
難 4711
強 4709
6 4706
話 4693
接 4681
ran 4667
ca 4662
▁before 4633
fin 4627
則 4625
樣 4624
員 4623
基 4623
▁20 4619
片 4605
▁love 4594
士 4591
女 4588
論 4588
指 4586
▁him 4580
即 4579
ta 4578
wa 4573
▁brain 4569
百 4569
他們的 4559
很多 4557
▁each 4543
覺得 4534
觀 4530
權 4523
▁came 4515
步 4515
得到 4514
▁might 4512
pu 4507
▁cha 4507
反 4502
型 4499
▁當 4492
了解 4490
▁tri 4489
ure 4476
們 4476
ible 4469
社會 4452
來說 4448
怎麼 4441
▁2 4437
▁understand 4437
▁year 4426
就會 4411
▁still 4408
▁hi 4401
nd 4400
▁important 4397
質 4393
cent 4387
管 4376
ial 4374
▁never 4371
▁thought 4367
上的 4360
▁mar 4353
▁wi 4350
▁another 4340
▁last 4335
影響 4334
極 4330
ious 4329
這樣的 4327
hy 4323
的事 4321
中的 4318
log 4316
▁better 4316
千 4315
但 4311
mon 4298
one 4290
深 4284
land 4281
例 4280
% 4276
▁play 4273
ner 4270
▁act 4269
讓我 4266
已 4260
應 4257
▁fun 4253
▁started 4250
失 4246
gen 4224
▁live 4224
真 4211
關 4204
▁sa 4201
ger 4199
ities 4194
’ 4191
ap 4184
▁design 4181
程 4181
▁mu 4178
生物 4171
▁found 4170
師 4163
消 4157
ight 4155
tro 4150
甚至 4149
▁如果你 4146
制 4137
▁long 4130
▁too 4121
be 4120
病 4119
各 4117
▁000 4115
▁19 4113
ib 4112
其實 4108
創造 4108
成為 4107
tor 4105
vo 4102
一點 4100
▁together 4099
▁而且 4099
ard 4089
con 4089
取 4083
確 4083
立 4082
av 4079
不同 4077
完全 4072
案 4065
剛 4060
ga 4048
出來 4048
ative 4045
專 4042
結 4042
▁water 4041
自己的 4041
▁對 4038
▁art 4034
▁number 4030
的問題 4029
老 4027
並 4023
歲 4023
▁school 4018
▁example 4011
品 4011
張 4004
gg 4003
ip 4002
別 3995
▁women 3992
認 3992
▁able 3989
式 3984
uc 3979
東西 3979
算 3977
▁point 3973
之後 3968
件 3968
▁也 3967
公司 3965
其中 3963
非 3958
最後 3946
各位 3943
起來 3940
格 3938
ward 3937
少 3936
▁story 3931
▁我想 3929
奇 3918
這裡 3918
▁few 3915
ex 3907
▁problem 3907
組 3905
the 3900
▁under 3892
該 3890
▁inter 3887
吧 3882
▁feel 3877
遠 3877
▁next 3876
▁hand 3875
快 3870
▁am 3869
▁call 3864
▁bit 3861
▁million 3851
引 3846
ack 3840
相信 3827
ten 3825
for 3816
mit 3813
▁does 3812
畫 3812
哪 3809
的東西 3794
▁home 3784
▁♫ 3784
ell 3782
的方式 3781
lar 3778
里 3774
ism 3773
目 3771
害 3764
▁may 3761
請 3756
近 3754
議 3748
▁data 3745
單 3744
▁between 3739
▁imp 3739
維 3732
離 3728
▁health 3727
住 3727
科技 3723
rr 3716
do 3703
那個 3696
▁grow 3695
▁好 3679
這是 3677
va 3676
也是 3675
球 3664
▁again 3663
整 3660
結果 3658
▁went 3657
眼 3656
費 3656
拿 3651
腦 3650
如此 3649
▁used 3648
告訴 3648
press 3639
生活 3639
解決 3638
正在 3636
▁從 3628
▁cor 3619
以及 3618
還是 3616
- 3606
裝 3603
黑 3603
微 3602
安 3600
更多 3597
錢 3595
決定 3594
pla 3593
一下 3593
不能 3593
他的 3592
只有 3591
▁care 3590
ating 3588
▁ask 3586
想像 3578
集 3578
一直 3576
fl 3560
生命 3560
▁v 3557
創 3557
▁believe 3554
層 3545
▁far 3541
空 3536
▁become 3531
的地方 3522
飛 3522
是個 3520
過去 3515
20 3505
▁ago 3505
▁course 3501
解 3501
▁second 3500
不同的 3499
▁war 3495
進行 3490
▁plan 3484
對於 3482
還有 3481
為了 3479
總 3479
▁small 3474
▁turn 3474
直 3471
置 3464
▁gu 3461
▁technology 3461
巴 3460
發展 3456
導 3454
細胞 3453
素 3451
足 3451
▁謝謝 3448
報 3444
▁read 3437
像是 3434
共 3434
未來 3431
▁na 3427
錯 3425
喜歡 3406
變成 3406
如果 3404
關於 3402
▁maybe 3401
調 3397
chi 3396
做的 3395
▁hard 3391
便 3391
ral 3389
bl 3387
▁col 3385
死 3382
英 3377
地球 3376
早 3375
活 3373
節 3370
▁space 3369
命 3369
找到 3367
▁children 3353
▁old 3329
待 3329
▁就是 3327
▁light 3325
▁因此 3325
man 3321
率 3320
謝 3318
是在 3313
▁trans 3309
▁person 3307
房 3301
qui 3297
▁10 3297
首 3296
二 3292
存在 3291
選 3291
建 3287
hu 3285
▁le 3285
▁power 3279
ose 3274
來自 3268
故事 3263
推 3261
▁doesn 3254
產生 3252
照 3250
感覺 3248
同時 3246
測 3244
▁less 3242
▁four 3241
越 3241
條 3238
經濟 3237
電腦 3233
pp 3228
選擇 3226
低 3225
▁還有 3224
port 3222
▁experience 3221
玩 3221
女性 3219
第一 3217
▁form 3213
今天 3205
熱 3200
往 3196
▁always 3188
存 3187
止 3185
網路 3179
▁tr 3166
運 3166
▁你們 3165
方式 3165
情況 3159
密 3156
▁ever 3150
新的 3148
服 3146
果 3145
科學 3141
聯 3141
覺 3139
▁create 3138
門 3135
並不 3134
真正 3132
當時 3130
▁cap 3121
▁它們 3121
▁並 3108
設 3107
per 3103
一位 3103
經 3103
簡單 3098
▁wanted 3095
技術 3095
▁move 3094
比較 3092
樂 3091
oc 3090
神 3090
舉 3085
ever 3083
部分 3083
組織 3082
城市 3069
絕 3069
▁lead 3061
go 3058
兩個 3058
看看 3050
差 3047
標 3047
稱 3046
台 3044
驚 3035
ki 3030
pl 3030
區 3024
政府 3024
▁fo 3018
火 3016
大腦 3014
▁away 3011
▁sw 3009
阿 3007
朋友 3006
▁mis 3003
象 3002
料 3001
卡 2994
讀 2994
▁working 2988
── 2985
cho 2981
less 2978
▁looking 2978
落 2976
改 2975
億 2974
▁creat 2973
計 2973
細 2971
傷 2967
聲 2967
▁但我 2965
顯 2965
▁face 2963
▁sort 2963
▁set 2952
ome 2950
這麼 2944
動物 2940
▁large 2939
能力 2934
ak 2931
產 2930
羅 2928
資料 2924
row 2923
▁country 2920
▁everything 2918
▁means 2918
▁done 2910
另一 2908
半 2897
林 2897
是一個 2896
在這 2894
出現 2892
king 2890
號 2883
▁reason 2882
完 2882
▁rep 2880
是我們 2880
環境 2876
全球 2868
提供 2867
連 2867
超 2866
▁sub 2865
抗 2862
健康 2859
ator 2858
過程 2855
口 2854
角 2853
持 2850
布 2846
40 2844
不知道 2844
use 2842
幫助 2841
▁while 2839
尼 2839
▁whole 2836
之一 2831
▁met 2829
▁cl 2828
▁open 2822
月 2822
是否 2820
一次 2818
段 2818
▁times 2815
▁africa 2811
記 2811
態 2810
▁process 2809
未 2809
▁future 2807
某 2805
一起 2803
為什麼 2800
是什麼 2799
▁information 2798
機會 2798
▁red 2792
19 2781
牠們 2777
約 2775
▁social 2772
原因 2772
查 2769
▁enough 2768
spect 2766
▁mil 2761
▁moment 2759
▁building 2757
棒 2757
wi 2754
叫 2752
擊 2748
效 2748
是因為 2748
▁win 2741
吃 2740
思考 2740
整個 2738
▁所以我 2734
▁job 2733
▁run 2730
一切 2730
造 2730
每個 2728
望 2727
關係 2726
有些 2722
▁best 2721
ake 2720
▁thinking 2720
▁without 2720
元 2720
商 2720
line 2719
排 2719
講 2718
▁mind 2717
ang 2716
▁five 2716
影 2715
性的 2712
▁body 2710
▁ju 2707
身體 2705
▁case 2702
que 2700
▁earth 2697
▁add 2696
吸 2695
15 2694
bra 2692
▁ja 2692
照片 2689
ton 2688
室 2688
有一個 2686
ric 2678
學習 2676
▁name 2674
pi 2667
之間 2663
行為 2658
包 2653
展 2648
▁walk 2647
造成 2645
ba 2643
rap 2643
▁left 2643
思 2640
停 2639
▁food 2637
症 2637
有人 2632
列 2630
戰 2629
ling 2627
學生 2627
資訊 2627
▁這就是 2625
▁group 2624
▁kids 2623
年前 2622
魚 2622
之前 2620
成功 2618
獨 2618
找 2616
地方 2615
▁keep 2610
▁lives 2608
任 2604
份 2603
藝術 2602
▁guy 2600
▁sign 2593
▁research 2592
▁money 2591
時候 2591
眾 2591
證 2588
網 2584
例子 2581
殺 2579
留 2579
世 2574
所有的 2572
變得 2572
ized 2571
掉 2571
▁answer 2565
基本 2565
▁making 2564
感到 2564
ability 2563
ie 2561
▁young 2560
座 2557
▁imagine 2555
石 2555
重要 2550
透過 2548
▁book 2546
風 2546
getting 2543
適 2543
▁sense 2542
▁head 2541
▁teach 2534
事情 2531
第二 2531
▁family 2526
讓我們 2526
▁side 2524
▁project 2523
些 2523
波 2523
▁develop 2521
計畫 2515
▁computer 2514
事實 2512
· 2509
▁city 2505
語 2505
▁1 2503
▁stand 2500
數據 2496
精 2495
的事情 2488
▁以及 2487
何 2483
市 2483
預 2483
六 2482
規 2481
個人 2478
級 2474
▁free 2473
方法 2472
▁connect 2469
媽 2468
nu 2466
擁有 2465
州 2463
▁energy 2461
60 2459
久 2459
▁matter 2457
試 2457
▁pi 2456
並且 2456
的故事 2455
▁men 2454
買 2452
基因 2448
投 2447
fu 2445
▁200 2445
若 2445
蘭 2445
了一個 2443
▁bring 2441
非洲 2441
▁planet 2437
聲音 2430
就像 2428
▁3 2426
山 2424
富 2421
建築 2419
景 2418
val 2414
▁close 2414
學家 2414
▁science 2411
▁such 2408
教育 2408
題 2408
養 2408
誰 2407
▁build 2405
hi 2404
▁hope 2403
自然 2403
的話 2397
血 2394
今 2392
主義 2385
送 2385
染 2384
▁事實上 2382
限 2382
▁picture 2381
或是 2379
▁sound 2378
納 2377
安全 2372
▁both 2369
▁seem 2369
▁across 2368
客 2367
射 2367
rs 2366
威 2366
的時間 2366
▁room 2364
▁often 2362
▁remember 2359
▁basic 2358
▁pass 2358
▁share 2358
可能會 2358
的工作 2357
幸 2355
製造 2349
土 2348
▁當然 2347
激 2347
▁allow 2342
團 2341
ob 2339
▁line 2335
到了 2335
音樂 2334
▁government 2333
▁就像 2329
▁global 2327
▁product 2325
ink 2324
▁stop 2324
ship 2323
空間 2322
律 2321
學校 2320
資 2320
▁air 2319
異 2319
告 2316
策 2315
食物 2311
建立 2310
夠 2309
處理 2301
居 2300
普 2299
息 2298
▁week 2296
站 2296
都有 2296
▁probably 2293
注 2293
伊 2281
然後 2278
底 2276
ron 2273
▁once 2273
善 2270
食 2269
穿 2266
滿 2262
曾 2260
廣 2259
▁那是 2256
▁pretty 2250
▁someone 2246
換 2245
拍 2242
特別 2241
斷 2237
塊 2236
▁fra 2234
僅 2233
▁animal 2232
having 2230
▁child 2230
▁image 2230
合作 2228
▁else 2225
系 2225
運動 2224
破 2223
目標 2217
所以 2215
隨 2212
文化 2210
▁happened 2209
至 2208
up 2207
負 2205
▁pain 2201
刻 2198
▁sea 2195
▁simple 2195
她們 2195
疾病 2194
歷史 2193
12 2192
晚 2192
▁countries 2189
18 2188
除 2188
▁girl 2187
▁community 2185
▁learn 2181
南 2178
幫 2178
▁control 2176
藥 2176
代表 2175
▁gene 2174
免 2171
10 2169
準 2167
▁anything 2165
背 2165
▁asked 2164
▁business 2164
▁effect 2163
▁且 2163
有關 2161
助 2155
▁single 2153
辦 2153
▁half 2149
圍 2149
將會 2149
只要 2148
注意 2148
▁billion 2147
▁你可以 2147
音 2145
政治 2143
▁later 2142
quite 2141
▁sure 2141
令人 2140
驗 2140
▁30 2138
▁yet 2138
意思 2138
並不是 2137
就能 2136
▁eye 2132
才能 2132
笑 2132
都會 2132
有個 2131
▁living 2130
童 2127
▁age 2126
▁public 2126
▁interesting 2125
▁mov 2125
另一個 2124
實驗 2124
▁所以我們 2122
80 2121
核 2121
痛 2121
治療 2120
移 2120
責 2119
超過 2118
gue 2114
界 2114
降 2113
護 2111
▁bad 2109
述 2105
看起來 2104
▁saw 2102
ze 2098
複雜 2098
清 2096
雖 2096
▁study 2094
米 2094
科 2091
▁complete 2089
▁environment 2089
《 2089
》 2089
▁wonder 2088
男 2087
▁cur 2086
源 2085
▁happen 2081
神經 2081
軍 2081
社區 2078
ped 2074
▁treat 2074
在這裡 2074
醫生 2074
大約 2073
意識 2070
▁black 2069
方面 2067
爭 2067
狀 2066
幾乎 2064
▁coming 2063
▁seen 2062
▁hear 2060
下來 2059
項 2058
▁disease 2057
影片 2057
重要的 2057
分享 2055
控制 2055
▁du 2054
▁music 2054
利用 2054
▁instead 2052
相當 2052
▁already 2049
夫 2049
] 2048
▁test 2047
▁top 2047
▁lab 2045
▁當我 2042
年輕 2041
▁cells 2040
假 2040
古 2039
way 2038
▁model 2037
詞 2037
終 2035
▁yes 2033
30 2032
▁deep 2032
▁almost 2027
一天 2026
家庭 2025
istic 2024
▁thousand 2021
的世界 2021
依 2019
▁days 2017
目前 2017
cal 2015
統 2015
進入 2014
求 2012
▁rest 2011
樹 2011
▁possible 2009
▁或是 2009
lock 2007
▁states 2007
活動 2007
靠 2007
▁machine 2006
接受 2005
較 2005
回到 2004
容易 2001
具 2000
▁heart 1999
史 1996
她的 1996
壞 1995
▁watch 1993
術 1993
▁game 1992
▁nothing 1991
攝 1990
候 1989
溫 1989
▁level 1987
▁patient 1987
▁whether 1987
▁為什麼 1987
念 1987
▁inside 1983
▁house 1982
短 1982
▁har 1979
▁history 1977
通常 1975
▁sometimes 1970
是我 1970
反應 1967
營 1964
一定 1963
個月 1963
▁happens 1962
▁leg 1960
皮 1959
答案 1959
不要 1958
採 1958
保護 1956
▁myself 1955
▁speak 1955
▁dollars 1954
▁如果我們 1954
言 1952
day 1947
靈 1947
做了 1945
支 1944
參與 1943
▁within 1941
有點 1940
多少 1935
百萬 1934
考 1933
▁problems 1929
▁low 1928
復 1928
意義 1927
觸 1927
▁six 1922
院 1922
人生 1921
且 1918
油 1917
▁我們可以 1916
▁mother 1915
世界上 1913
小時 1913
犯 1913
▁language 1912
▁words 1910
▁piece 1908
製 1907
臨 1902
▁since 1901
價值 1898
哈 1898
巨 1897
政 1897
旅 1897
致 1897
做出 1895
菌 1895
農 1894
衛 1891
▁我認為 1890
劇 1889
工具 1889
世紀 1888
完成 1888
語言 1888
大學 1887
大部分 1886
警 1886
慢 1885
▁那麼 1883
構 1881
親 1880
▁law 1878
▁until 1878
▁而是 1878
▁stuff 1875
播 1875
件事 1874
承 1874
▁order 1873
端 1873
救 1872
▁discover 1870
想法 1869
▁接著 1868
▁stories 1866
苦 1866
隊 1866
領 1866
▁figure 1864
▁program 1862
怕 1862
醫 1860
十年 1859
成長 1858
▁organ 1857
官 1857
▁state 1856
在一起 1856
宇宙 1856
... 1853
▁class 1853
不到 1853
追 1853
的方法 1852
▁certain 1851
怪 1847
升 1846
各種 1846
舞 1844
▁particular 1843
▁wrong 1842
盡 1841
課 1840
▁self 1836
很好 1835
ets 1833
▁prop 1831
哥 1831
▁goes 1828
監 1828
挑戰 1827
科學家 1826
益 1824
狀況 1823
▁minute 1820
材 1819
的想法 1817
light 1815
▁wasn 1813
自由 1813
▁american 1809
中心 1807
繼續 1805
▁[ 1803
死亡 1803
▁everyone 1802
▁night 1799
機器人 1799
社 1797
gi 1796
we 1796
實際上 1796
▁entire 1791
▁true 1791
聽到 1791
做到 1790
森 1790
▁result 1789
▁robot 1789
切 1789
也會 1786
▁step 1784
▁讓我們 1783
▁hundred 1780
▁team 1775
▁video 1772
尋 1772
仍然 1770
united 1769
▁full 1769
力量 1769
努力 1769
▁woman 1768
每天 1768
▁months 1767
▁saying 1767
屬 1767
重新 1767
▁must 1765
速 1764
▁though 1763
讓你 1762
這件事 1760
紅 1759
▁fast 1758
劃 1758
用來 1758
就可以 1756
裏 1756
包括 1754
叫做 1753
會有 1753
ach 1752
▁challenge 1752
把它 1752
模式 1751
解釋 1751
印 1749
11 1748
必 1748
修 1746
那麼 1746
小孩 1745
▁cost 1744
▁issue 1744
嘗試 1743
▁knew 1742
▁past 1742
70 1740
▁exist 1740
太陽 1740
階 1740
持續 1739
際 1738
▁你會 1737
八 1737
模 1736
行動 1736
易 1735
遊戲 1735
派 1734
▁sex 1733
中國 1733
勢 1733
機器 1733
而言 1733
han 1732
值 1732
可以看到 1727
試著 1725
▁cancer 1724
義 1724
理解 1723
概念 1722
▁amazing 1721
患 1720
價 1719
冰 1719
突 1719
經歷 1717
▁market 1716
我想 1716
連結 1715
▁meet 1714
▁kill 1713
帶來 1712
▁star 1711
▁force 1708
▁individual 1708
北 1708
看見 1707
付 1705
範 1704
▁scientist 1701
河 1701
▁invest 1700
優 1698
別人 1698
革 1695
bb 1693
境 1693
身上 1693
▁不過 1692
經驗 1692
▁我要 1691
職 1691
▁100 1690
▁或者 1689
倍 1689
▁education 1688
不斷 1688
▁against 1687
▁micro 1686
園 1686
▁became 1685
左 1685
板 1685
ep 1682
歌 1678
▁dur 1676
配 1676
防 1670
▁value 1668
含 1668
運作 1668
頓 1668
面對 1665
的生活 1664
▁friends 1663
▁term 1662
作品 1662
街 1661
積 1660
▁learned 1658
增加 1657
▁pay 1656
▁比如 1656
病人 1655
檢 1653
顯示 1652
印度 1651
鏡 1651
▁cause 1650
當中 1650
跑 1650
電影 1650
▁beautiful 1649
▁everybody 1646
▁train 1646
▁collect 1645
或許 1643
雙 1643
▁follow 1641
以前 1641
週 1641
七 1640
倫 1639
200 1637
環 1636
互 1635
智慧 1635
啊 1634
通過 1634
▁bur 1633
▁oh 1633
句 1632
清楚 1631
疑 1631
▁heard 1630
▁leave 1630
賽 1630
牠 1629
協助 1628
衝 1628
90 1627
▁interest 1627
女孩 1627
▁當你 1626
紙 1624
受到 1621
記得 1621
▁bio 1620
蓋 1619
grad 1618
夢 1618
▁也許 1617
form 1616
也有 1612
人口 1612
觀察 1606
taking 1603
▁support 1603
▁drug 1602
參 1600
ology 1599
out 1599
▁exactly 1598
蟲 1596
麗 1595
部份 1594
事物 1591
初 1591
▁clear 1590
▁engine 1589
▁color 1588
唯一 1587
架 1587
▁personal 1586
▁mass 1585
▁drive 1584
▁students 1584
第一個 1584
▁super 1582
右 1581
準備 1581
真實 1580
▁也就是 1579
▁difference 1578
接下來 1578
臉 1577
▁object 1576
分鐘 1575
略 1575
▁safe 1574
▁company 1573
周 1573
▁society 1572
容 1571
描 1571
▁god 1570
幾個 1570
緊 1570
▁sun 1569
▁themselves 1569
曲 1568
針 1568
資源 1567
備 1565
彈 1565
隻 1565
▁ocean 1564
▁protect 1563
年代 1563
支持 1563
漸 1562
館 1561
▁couple 1560
▁risk 1559
主要 1559
餐 1558
▁natural 1556
貧 1556
一般 1553
結構 1553
華 1553
辦法 1553
敗 1552
▁listen 1550
▁material 1550
▁然而 1550
怎樣 1549
缺 1549
評 1549
▁view 1547
▁produce 1545
跳 1545
母 1543
▁built 1541
▁cell 1541
▁decided 1541
▁along 1540
海洋 1540
習 1538
據 1536
領域 1536
▁front 1535
恐 1534
藥物 1534
那裡 1533
肯 1532
▁hold 1530
博 1529
船 1529
van 1528
族 1528
根 1528
總是 1528
感受 1527
顧 1526
based 1525
產品 1525
▁但我們 1523
窮 1523
▁common 1520
▁focus 1519
自我 1519
離開 1519
訊息 1517
▁fish 1515
▁yea 1515
探 1514
木 1514
沙 1514
▁culture 1513
而且 1512
▁ourselves 1511
某些 1510
not 1507
▁feeling 1506
▁當我們 1506
有趣的 1506
討論 1506
▁nature 1505
罪 1505
全世界 1504
治 1504
寶 1502
▁species 1501
▁india 1499
介 1499
同樣的 1498
根本 1498
▁middle 1497
腳 1497
▁word 1496
如果你 1496
數字 1495
演講 1493
▁experiment 1492
塔 1490
迷 1490
▁phone 1489
大概 1489
呼 1488
▁short 1487
▁america 1483
▁bar 1483
生產 1483
▁break 1481
女人 1481
父母 1481
▁solution 1480
▁spend 1479
太空 1479
想到 1479
不僅 1477
▁deal 1475
▁death 1475
▁type 1475
那樣 1475
錄 1474
並沒有 1473
▁universe 1472
fo 1470
在那裡 1470
ization 1468
示 1468
糟 1465
索 1462
輸 1462
程式 1461
▁write 1460
▁difficult 1457
病毒 1457
簡 1453
▁south 1449
分子 1449
▁fail 1448
▁hours 1448
作為 1448
裡面 1448
▁somebody 1447
電話 1447
市場 1446
▁arm 1445
仍 1445
▁rather 1443
▁white 1443
醫療 1443
我們可以 1442
每一個 1441
控 1440
讓人 1440
這項 1440
▁於是 1439
亮 1439
聚 1439
版 1438
諾 1436
避 1436
曾經 1435
看著 1434
移動 1434
▁eat 1432
骨 1432
放在 1431
▁learning 1430
▁huge 1429
孩 1429
彼此 1429
艾 1428
▁wait 1427
企業 1427
有很多 1426
潛 1426
頂 1426
聖 1425
一張 1424
▁couldn 1423
惡 1423
▁emotion 1422
碼 1422
▁early 1421
軟 1419
▁complex 1418
輕 1416
▁center 1415
喜 1415
蛋 1415
▁happening 1414
智 1414
▁para 1413
執 1413
▁economic 1411
▁behavior 1409
▁je 1409
▁而我 1409
▁street 1407
取得 1407
▁itself 1406
▁internet 1404
地區 1404
不再 1403
▁doctor 1402
一項 1402
物質 1402
是一種 1401
uck 1400
塑 1400
服務 1399
▁expect 1398
▁fear 1397
決 1397
福 1396
麻 1396
▁third 1395
住在 1394
第一次 1394
▁felt 1392
媒體 1392
▁reach 1391
典 1388
施 1388
▁relationship 1387
▁你知道 1386
散 1386
▁circ 1385
團隊 1385
建造 1385
▁blood 1383
有效 1383
▁die 1381
▁near 1381
碳 1380
懷 1379
▁voice 1378
▁worked 1378
局 1378
17 1373
班 1373
肉 1373
▁population 1372
困難 1372
永遠 1372
退 1371
投資 1370
▁因為我 1369
程度 1368
▁finally 1367
▁green 1367
這個問題 1366
那時 1366
時代 1365
相關 1365
讓他們 1365
▁created 1364
▁local 1364
嗯 1364
知識 1363
礎 1361
壓 1360
▁parents 1359
理論 1358
技 1356
▁cut 1355
東 1355
偏 1353
願 1352
lan 1351
紐約 1351
▁choice 1350
直接 1349
美元 1349
戰爭 1347
▁least 1346
是由 1346
毒 1345
疫 1345
▁decision 1344
紀 1344
▁dream 1343
銀 1342
洛 1341
▁outside 1340
戶 1340
睡 1339
速度 1339
類似 1339
▁reality 1338
手機 1338
坦 1337
▁access 1335
▁companies 1335
▁rule 1335
困 1335
最近 1335
票 1334
▁gre 1333
▁structure 1333
一年 1333
奧 1333
洞 1333
興 1332
很重要 1331
▁oka 1330
▁won 1329
來看 1329
ile 1328
藏 1327
暗 1326
察 1325
▁climate 1324
慮 1324
順 1324
▁record 1323
一段 1322
▁present 1321
二十 1321
混 1320
甚麼 1320
其他人 1319
▁political 1318
區域 1318
遺 1317
▁impact 1315
不只是 1315
味 1315
♫♫ 1314
續 1314
青 1314
14 1313
▁friend 1312
爲 1312
▁poor 1310
最終 1310
雷 1309
母親 1307
▁amount 1306
稱為 1306
▁vari 1305
16 1304
伯 1304
表現 1304
變化 1303
▁began 1302
▁network 1302
給我 1301
不可能 1300
序 1300
坐 1298
▁main 1297
▁yourself 1297
九 1297
▁perhaps 1295
▁count 1294
▁media 1294
▁stay 1294
衣 1294
▁easy 1293
▁fight 1293
編 1293
— 1292
▁behind 1292
開發 1292
暴 1290
▁perfect 1289
有可能 1289
▁pick 1288
瑞 1288
賣 1288
領導 1288
興趣 1287
角色 1287
什麽 1285
▁field 1284
液 1283
脫 1283
▁boy 1282
傳統 1282
製作 1282
認識 1282
需 1282
▁neuro 1281
第三 1280
謂 1280
迫 1280
▁buy 1279
或者 1278
確實 1277
訊 1276
爸 1275
▁fall 1274
英國 1273
▁powerful 1272
增 1272
複 1272
▁physical 1271
能源 1271
▁father 1270
▁given 1270
▁measure 1270
▁manage 1269
另外 1269
正確 1269
鼓 1269
▁cities 1268
務 1267
距 1265
三個 1264
能量 1263
形成 1261
▁movement 1259
▁他說 1259
禮 1259
男人 1258
藉 1258
關鍵 1258
time 1257
告訴我 1255
▁gave 1254
令 1254
那種 1254
棄 1251
▁wall 1250
▁key 1249
▁york 1249
刺 1247
表示 1247
▁century 1246
失去 1246
氧 1246
▁shape 1245
▁tree 1244
實驗室 1243
心理 1243
▁longer 1241
▁seven 1241
擴 1241
但是 1240
▁consider 1238
弱 1238
醒 1238
現今 1237
越來越 1236
▁paper 1235
情緒 1235
發明 1235
▁generation 1233
▁perform 1233
冷 1233
當然 1233
診 1233
▁organization 1232
功能 1232
絲 1232
伴 1231
展示 1231
也可以 1230
捕 1230
隱 1230
現實 1229
許 1228
▁conversation 1226
▁simply 1226
很難 1226
某種 1226
障 1226
作用 1223
這麼做 1223
均 1222
▁major 1220
析 1220
至少 1219
ier 1215
數學 1215
阻 1215
▁interact 1214
▁north 1214
勵 1214
私 1214
內容 1213
▁changed 1212
第 1212
管理 1212
想想 1210
▁strong 1208
有什麼 1208
▁normal 1207
危 1207
暴力 1207
植物 1207
牛 1207
事件 1206
機構 1204
筆 1204
藍 1204
證明 1204
google 1203
▁size 1203
減少 1203
臟 1201
說明 1200
巧 1199
▁slow 1198
套 1198
提出 1198
當地 1197
▁realized 1196
現象 1196
結束 1195
▁explain 1194
宗 1194
抱 1194
根據 1194
預測 1194
▁save 1193
一隻 1193
啟 1193
判 1192
獲得 1192
融 1192
訓練 1192
訪 1192
▁national 1191
要求 1191
精神 1190
財 1190
cially 1189
尋找 1189
懂 1189
賴 1189
祖 1188
充滿 1187
學到 1187
壓力 1185
▁taken 1182
測試 1182
趣 1182
lk 1181
共同 1181
亂 1180
野 1180
print 1179
島 1179
得要 1179
掌 1179
牙 1178
▁china 1175
▁europe 1175
▁solve 1175
綠 1175
▁begin 1173
縮 1172
覆 1171
協 1170
尺 1170
酒 1170
到底 1169
電子 1168
▁approach 1167
▁fire 1167
▁represent 1167
▁send 1167
最大的 1167
▁increase 1166
▁office 1166
13 1165
新聞 1165
育 1165
▁surface 1164
快樂 1164
佛 1163
識 1163
麥 1163
減 1162
佈 1161
竟 1161
▁eight 1160
▁turned 1160
還要 1160
忘 1159
風險 1159
▁continue 1158
徵 1158
有些人 1158
燈 1158
倒 1157
▁blue 1156
▁decade 1156
擔 1156
老師 1156
似乎 1155
觀眾 1155
▁travel 1154
並非 1154
也許 1154
獎 1154
▁attention 1153
上面 1153
否 1153
燃 1153
遍 1152
▁special 1150
貝 1150
達到 1148
嚴重 1146
▁dark 1145
▁kid 1145
圈 1141
▁pattern 1140
創新 1140
床 1139
意味著 1139
父親 1139
▁draw 1138
姆 1137
▁happy 1136
▁那就是 1136
▁device 1135
後來 1135
民主 1135
熟 1135
▁audience 1130
良 1130
...... 1129
▁lost 1129
予 1129
估 1129
狂 1129
隨著 1129
險 1129
願意 1129
永 1128
章 1127
規模 1126
▁condition 1125
▁electric 1125
瞭解 1125
競 1125
▁chris 1124
快速 1124
▁provide 1123
▁ground 1122
▁notice 1122
▁obvious 1122
▁service 1122
應用 1122
洲 1122
癌症 1122
本身 1121
錯誤 1120
實際 1119
回答 1118
婚 1117
▁這是一個 1116
草 1116
靜 1115
以為 1114
詩 1114
零 1114
店 1113
▁film 1112
危險 1112
十分 1111
找出 1111
模型 1111
化學 1110
男性 1110
100 1108
延 1105
時刻 1104
izing 1103
人員 1103
坐在 1103
旁 1103
▁medical 1102
▁potential 1102
▁similar 1102
記憶 1102
始 1101
▁resource 1100
一件 1100
衡 1100
▁path 1096
供 1096
每個人都 1096
▁born 1095
友 1095
▁quickly 1093
恐懼 1093
運用 1093
議題 1092
大多數 1090
▁absolute 1089
村 1089
▁beginning 1088
雄 1088
▁post 1087
堂 1087
▁transform 1086
物理 1086
▁對吧 1085
毛 1085
擔心 1084
經過 1083
▁pen 1082
大家都 1082
擬 1082
無論 1082
電視 1082
必須要 1081
試圖 1081
▁map 1080
突然 1080
一條 1079
人民 1078
種族 1078
浪 1077
具有 1076
▁invent 1075
同樣 1075
計算 1075
▁civil 1074
假設 1074
儘 1074
方向 1074
當你 1074
曼 1073
▁而這 1072
遭 1072
▁operat 1071
board 1070
廠 1070
遇到 1070
▁situation 1069
告訴你 1068
任務 1067
歐 1066
▁opportunity 1064
▁rich 1064
導致 1063
傾 1062
興奮 1062
除了 1062
確定 1059
汽車 1058
▁truth 1057
堅 1057
登 1056
膠 1056
舊 1056
雜 1055
隔 1053
▁explor 1051
悲 1050
▁hospital 1049
狀態 1049
秒 1049
釋 1049
▁flow 1048
樓 1048
▁whatever 1047
宣 1047
損 1046
爆 1046
▁chance 1045
秘 1045
▁predict 1044
▁alone 1042
需求 1042
▁general 1041
ologist 1040
夜 1040
很多人 1039
醫院 1039
▁stage 1038
似 1038
▁auto 1037
▁extreme 1037
generat 1036
定義 1036
歐洲 1036
幕 1035
▁trust 1034
▁require 1033
婦 1033
探索 1031
透 1031
▁current 1029
▁smart 1029
猜 1029
享 1028
猩 1027
固 1026
默 1026
▁enter 1025
互動 1025
唱 1025
談論 1025
重點 1025
款 1024
符 1024
萊 1024
翻 1023
ified 1022
▁architect 1021
等等 1021
▁character 1020
最重要的 1020
每年 1020
附 1020
▁development 1019
▁involve 1019
▁sl 1018
妳 1018
星期 1018
乾 1016
▁report 1015
▁sleep 1015
希 1015
偉 1014
畢 1014
▁easi 1013
網站 1013
聰明 1013
粒 1012
魯 1012
袋 1011
歸 1010
陸 1010
changing 1008
溝 1008
輪 1008
呈現 1007
帝 1007
王 1007
記錄 1006
烈 1002
貴 1002
妙 1001
瘋 998
♪ 997
焦 997
漫 996
堆 993
獄 993
幻 992
糖 991
睛 989
遷 989
顏 989
遊 988
牌 985
迪 985
乎 984
攻 984
牆 984
碰 984
/ 981
充 981
顆 981
鳥 981
按 978
繞 975
急 973
塞 970
滅 966
尤 965
毀 961
瓦 958
討 958
鐵 957
閉 957
旦 955
炸 955
酷 955
礙 954
冒 953
替 951
愈 949
薩 948
虛 948
揮 947
吉 946
勝 944
拜 939
恩 936
瑪 934
禁 932
獻 931
游 929
勞 927
武 927
穩 927
守 926
露 924
額 924
植 922
屋 921
究 919
嚴 916
q 915
操 915
封 907
貨 902
震 902
培 900
耳 900
雨 900
劑 899
奏 899
聊 898
補 896
忙 895
逃 895
銷 895
頻 895
蒙 894
狗 893
授 892
逐 892
裂 891
跨 889
黃 887
憂 885
途 885
殘 884
脅 884
贏 883
龍 881
仰 880
閱 880
幅 876
毫 876
循 875
辨 875
乳 874
儀 873
繁 873
魔 871
佳 869
沉 869
▁san 867
載 865
慣 863
勒 862
省 862
休 861
遇 860
蒂 859
庫 858
尊 857
廳 857
蜂 857
奈 856
侵 854
鼠 854
嬰 853
輯 853
喔 850
幹 849
搞 849
槍 849
丁 847
蘇 844
既 842
摩 841
膚 840
雅 840
丹 838
怖 837
鄰 837
獲 833
螢 832
絡 830
滋 829
粉 827
麼 824
剩 823
戴 822
誌 822
耗 820
練 819
援 817
殖 815
碎 815
撞 814
傑 808
勇 808
盤 807
抵 806
泡 806
訝 806
箱 803
抽 802
香 802
徑 800
貼 800
丟 799
托 799
城 798
圓 797
洗 792
抓 791
莉 791
搜 790
滑 790
司 789
浮 789
邀 788
股 785
航 785
擺 784
鄉 784
篇 783
肌 783
弟 782
伸 781
災 780
糕 778
忽 777
歡 777
廢 776
弄 774
榮 770
蹤 770
娜 766
尾 766
凡 765
朗 765
拒 764
握 763
癌 761
誤 760
髮 758
硬 755
旋 754
佔 752
烏 752
繪 752
』 750
黨 749
『 748
燒 746
緣 746
尚 745
購 745
扮 743
洋 742
擾 741
稍 741
頁 740
驅 740
池 739
促 738
桌 733
盛 733
敢 732
跡 730
駕 730
葉 728
偶 727
荷 727
審 725
戀 724
搭 724
怒 723
折 723
茲 723
朝 722
‧ 721
夏 721
岸 719
賺 717
喝 716
污 716
陰 716
陷 716
純 715
緩 712
迎 710
彩 709
批 709
寄 708
答 708
孤 706
鬱 705
繫 704
谷 704
苗 703
舒 702
療 700
遞 699
橋 698
健 697
漂 697
儲 696
埃 696
雪 696
雲 696
般 693
志 692
脈 690
乏 689
兵 688
末 683
肥 683
乘 682
駛 681
研 680
鬥 680
獵 679
歷 677
爬 677
妹 676
珍 676
掃 673
淨 673
珊 673
莎 673
仔 672
您 672
煩 671
伙 670
墨 670
售 669
戲 657
飲 656
椅 655
厭 650
尖 650
孕 649
校 648
肢 648
邦 648
, 647
莫 647
誠 647
軌 646
疾 644
腫 644
暫 643
訴 640
拯 638
郵 637
兄 635
咖 635
餘 635
辯 634
響 633
瘤 631
眠 631
齡 631
寬 630
暖 630
磁 627
耶 627
菜 627
殊 626
鐘 625
袖 623
酸 622
振 619
鬆 616
喬 611
啡 610
徒 610
惑 609
腿 609
蟻 609
宜 607
故 607
干 606
仿 605
踏 605
紹 604
功 603
俄 602
• 600
捐 600
胎 599
偷 598
午 596
傢 595
帳 595
刑 594
喪 594
凱 592
啦 591
憤 591
輛 591
譜 589
搬 588
窗 587
歧 585
械 582
汗 581
甲 581
壁 579
潮 579
秀 576
悉 574
涉 574
垃 572
偵 571
圾 571
壯 570
豐 569
聞 568
辛 568
敏 567
累 566
脆 566
幼 565
貢 565
蜜 564
嚇 563
誕 562
陣 562
遜 560
盟 558
鞋 558
壽 555
貓 555
串 554
席 552
蚊 551
搖 550
陽 549
奶 547
臂 547
慈 546
瑚 543
荒 543
徹 542
賞 542
譯 540
鎮 540
哲 539
拼 539
疊 537
閃 537
肺 535
招 534
朵 534
奴 533
琴 533
盒 533
覽 532
麵 532
帕 531
趨 530
季 529
擁 529
泰 529
貌 528
é 527
麽 527
菲 525
孔 524
漠 524
晶 522
夥 521
敵 521
訂 521
躍 520
亦 519
幣 519
兆 518
柏 517
膜 516
遙 516
敦 515
瓶 515
雞 515
恢 513
穆 513
諸 510
副 509
嘴 509
薪 508
奪 506
忍 503
渴 502
翰 502
奮 501
妻 500
湯 500
龐 500
賦 499
堡 497
猶 497
姐 495
艱 494
雕 494
峰 493
礦 493
鮮 493
黎 491
允 490
檔 490
腐 490
敘 489
哩 486
杯 484
鋼 483
羊 482
喻 481
騙 481
恆 480
迴 479
裔 478
邁 473
挑 471
鏈 470
陌 470
恨 468
衰 468
裁 465
趕 465
岩 464
挺 464
沿 464
煙 464
鎖 463
父 462
詢 461
哭 459
灰 459
讚 459
映 457
昆 456
橫 455
– 454
噴 454
署 453
恰 452
尿 451
耐 450
春 448
悅 447
昂 447
泛 446
玻 445
膽 444
謀 442
鯨 442
拖 441
菸 441
漢 440
敬 438
飯 438
借 437
泥 437
邏 437
~ 436
羞 436
督 435
稅 435
側 434
漁 433
癒 431
噢 429
庭 429
廚 429
箭 429
販 429
軸 426
鯊 426
束 425
罰 425
磨 424
纖 424
撒 423
氏 423
梯 422
妮 421
摧 421
瘧 421
謊 421
棟 420
填 418
祝 418
截 417
委 416
企 415
割 415
抑 414
田 413
伍 411
駭 410
申 409
扎 408
皆 408
誘 408
挖 407
杉 407
潔 407
牢 407
擠 405
着 405
隸 404
騎 404
黏 403
脂 402
捉 401
宮 400
牧 400
芬 399
擅 397
$ 396
慶 395
腺 394
插 392
紋 392
刊 391
康 391
欣 391
漏 391
扭 390
揭 390
弗 389
腸 388
賓 388
歉 386
澳 386
嘿 384
& 383
泳 383
餓 383
擋 382
蘋 382
猴 381
罕 381
簽 380
藝 380
驟 380
胸 379
壤 378
訓 378
饋 377
柯 376
盲 376
熊 375
埋 374
臘 374
績 373
遵 373
輩 372
央 371
傲 370
厚 370
哇 370
蠻 370
冠 369
募 369
欺 369
齒 369
謎 368
贊 368
刀 367
卵 367
框 367
薄 367
璃 366
蠢 364
違 364
沃 363
飾 363
鼻 363
刷 362
措 362
籍 362
霍 362
糊 361
聆 361
掘 360
枝 360
胖 360
臺 360
拆 359
盧 359
織 358
襲 358
癮 357
脊 357
旗 356
紐 356
凝 354
肩 354
魂 354
晨 353
甜 353
瞬 353
厲 352
綁 351
瑟 350
鬼 350
“ 348
穴 348
渡 347
涵 345
掛 344
鍵 344
滾 343
擎 342
涯 342
哦 341
柱 341
鑽 341
鴉 341
嘛 340
摺 340
揚 339
萄 339
葡 339
況 338
慘 335
梅 334
疼 334
陪 334
陳 334
侶 332
噸 332
貸 332
濃 331
餵 331
甘 330
蹟 330
匹 329
矛 329
虐 329
返 329
吹 328
掙 328
桶 328
遲 328
俱 327
縫 327
鵝 327
鹽 327
摸 326
殼 326
愉 324
拋 324
迅 321
崩 320
赫 319
塗 318
滴 318
諷 318
醉 318
” 316
豬 316
辱 316
屍 315
沮 315
盾 315
貿 315
韓 315
囚 314
域 314
豪 314
垂 312
孫 311
躲 311
彎 310
磯 310
牽 309
膀 308
莊 308
貪 308
廉 307
湖 307
姻 306
灣 306
粹 306
凌 305
撐 305
爐 305
濾 303
稀 303
縱 303
擦 302
亡 301
屠 301
櫃 301
哺 300
炎 300
煤 300
獅 300
紫 300
寧 299
飽 299
餅 299
丈 298
捲 298
濫 298
礁 298
粗 298
賈 298
呎 297
昨 297
胡 297
叔 296
寓 296
蛛 293
寸 292
獸 292
磅 292
艘 292
隆 292
后 291
斥 291
叛 290
託 290
雌 290
仇 289
逆 289
塵 288
爛 288
牲 286
輔 286
氫 285
籤 285
剝 284
杜 284
棲 284
藻 284
飢 284
彙 283
伐 282
剪 282
皇 282
剖 281
妥 281
淡 281
桑 280
芝 280
役 279
棋 279
坡 278
灘 278
耀 278
京 277
灌 277
勃 276
咱 276
喊 276
川 276
螞 276
債 275
欲 275
俗 274
匯 274
婆 274
戒 274
茶 274
躺 274
顛 274
喚 273
媒 273
攜 272
松 272
輻 271
佩 270
詳 270
鈕 270
驕 270
凍 269
慾 269
柔 269
繩 269
蠅 269
酵 269
汙 268
僱 267
怎 267
愚 267
趟 267
弦 266
盪 266
贈 266
廁 265
籌 265
髓 265
冬 264
姿 264
慰 264
翼 264
憐 263
催 262
冊 262
帽 262
悟 262
惱 262
禱 261
占 260
娛 260
澤 260
蹈 260
惠 259
搶 259
肝 259
葛 259
齊 259
噪 258
棵 258
仁 257
址 257
潤 257
耍 257
─ 256
桿 256
欄 256
糧 256
螺 256
説 256
盜 255
巢 254
珠 254
腎 254
蜘 254
赤 254
脹 253
賭 253
辭 253
誇 252
准 251
呀 251
罐 251
褲 251
廊 250
甚 250
虎 250
汀 249
註 249
宿 248
懸 248
港 248
衍 247
姊 246
醜 246
雇 246
[ 245
惜 245
李 245
琳 244
逮 244
呆 243
濕 242
胞 242
竭 241
忠 240
憑 240
曉 240
矽 239
蒸 239
踐 239
伏 237
悶 237
淚 237
怨 235
猛 235
逝 235
霧 235
叢 234
奔 234
孟 234
幽 234
挫 234
斑 234
棉 234
譽 234
併 233
偽 233
煮 233
腹 233
譬 233
鷹 233
肪 231
須 231
丘 230
墓 230
憶 230
掠 230
蝠 230
稿 229
葬 229
豚 229
閒 229
勁 228
犧 228
邪 228
魅 228
恥 227
拓 227
瀏 227
痕 227
契 226
拔 226
詹 226
兼 225
攀 225
盯 225
笨 225
肅 225
蝦 225
郊 225
瓜 224
畏 224
繼 224
倡 223
湧 223
罩 223
醬 223
叉 222
禍 222
胃 222
奉 221
租 221
豆 221
跌 221
睹 220
腔 220
懲 219
蛇 219
汽 218
霸 218
裕 217
倖 216
堪 216
崇 216
憲 216
溯 216
綜 216
蝙 216
髒 216
斜 215
砍 215
蓄 215
謹 215
夾 214
漆 214
吞 213
彼 213
騷 213
削 212
嘆 212
召 211
烤 211
吻 210
彷 210
遮 210
劣 209
塢 209
捷 209
狼 209
翅 209
醇 209
骼 209
勤 208
吐 208
囊 208
掩 208
鹼 208
宏 207
寒 207
蕾 207
彿 205
玉 205
狹 204
吵 203
唐 203
懶 203
疲 203
罹 203
⋯ 202
戈 202
概 202
耕 202
膨 202
臭 202
闆 202
逼 201
淋 200
鳴 200
卓 199
浴 198
番 198
癱 198
糞 198
唸 197
敲 197
暢 197
井 196
撥 196
擇 196
浸 196
屏 195
胺 195
兇 194
囉 194
屈 194
晰 194
爺 194
廷 193
樑 193
籃 193
烹 192
姓 191
宅 191
竊 191
詮 190
咬 189
慌 189
拘 189
淺 189
酬 189
尬 188
庇 188
挪 188
尷 187
沖 187
筒 187
篩 187
亨 186
悔 186
扯 186
斤 186
瘓 186
禦 186
艇 186
嗨 185
鋪 185
磚 184
紛 184
裸 184
闊 184
湊 183
罷 183
膝 183
鑰 183
什 182
巡 182
豹 182
于 181
扇 181
蘿 181
# 180
征 180
舌 180
貫 180
爵 179
祈 179
謙 179
謬 179
扣 178
摔 178
坑 177
騰 177
匿 176
汁 176
痺 176
芭 176
銅 176
嗅 175
旱 175
矩 175
艙 175
丸 174
内 174
另 174
撈 174
棘 174
沈 174
泉 174
添 174
潰 174
蒐 174
傘 173
衷 173
鉛 173
+ 172
娃 172
寂 172
棕 172
炭 172
疏 172
綿 172
劍 171
瞧 171
祕 171
詐 171
頸 171
鬧 171
慎 170
撰 170
撼 170
毯 170
匙 169
巫 169
盆 169
諧 169
踢 169
坊 168
巾 168
披 168
津 168
椎 167
狄 167
胰 167
昏 166
歇 166
肚 166
蔬 166
鈴 166
忌 165
梭 165
欠 165
煉 165
蝕 165
韌 165
懼 164
扔 164
碟 164
茄 164
薯 164
龜 164
卑 163
卷 163
洩 163
溶 163
諮 163
犬 162
禿 162
嘉 161
橘 161
瞄 161
碑 161
羽 161
銳 161
陶 161
淹 160
墊 159
抬 159
飄 159
〕 158
们 158
倉 157
宰 157
〔 156
壇 156
碗 156
纏 156
峽 155
榜 154
兔 153
慨 153
薦 153
啤 152
踩 152
君 151
哀 151
屁 151
誓 151
这 151
頌 151
噬 150
墜 150
窟 150
寺 149
吊 148
撕 148
泊 148
滲 148
砸 148
穀 148
蠟 148
鬍 148
【 147
】 147
乙 147
伽 147
償 147
己 147
彌 147
扶 147
橡 147
匠 146
唯 146
撫 146
晃 145
緒 145
臥 145
訣 145
嚐 144
憾 144
漲 144
飼 144
烷 143
韋 143
♫ 142
炫 141
籠 141
翔 141
腰 141
倆 140
垮 140
摘 140
洪 140
燥 140
皂 140
矮 140
磷 140
闡 140
仙 139
勾 139
弊 139
旨 139
氮 139
溜 139
緻 139
誼 139
郡 139
鮪 139
刪 138
吋 137
并 137
抖 137
畜 137
禧 137
籲 137
肖 137
蛙 137
咒 136
賀 136
儕 135
划 135
劫 135
抹 135
捨 135
朱 135
泣 135
渦 135
熔 135
秋 135
董 135
訟 135
隧 135
仗 134
冥 134
嘯 134
詭 134
轟 134
釘 134
錶 134
秩 133
糾 133
躁 133
颶 133
黛 133
咪 132
嘲 132
寵 132
嶼 132
穎 132
茨 132
鍊 132
嫁 131
履 131
攤 131
昇 131
鮑 131
喘 130
夷 130
瀕 130
灑 130
筋 130
聘 130
頗 130
傻 129
喉 129
崔 129
氛 129
蕉 129
鋒 129
駐 129
駝 129
鹿 129
í 128
乃 128
棍 128
漿 127
潘 127
篷 127
罵 127
螂 127
雀 127
徙 126
愧 126
蒼 126
倦 125
撲 125
翁 125
釐 125
噁 124
姑 124
戚 124
柴 124
蔓 124
塌 123
祂 123
窄 123
胚 123
腕 123
陋 123
鴨 123
壺 122
嶄 122
慷 122
括 122
盔 122
窩 122
蓬 122
諒 122
骸 122
凸 121
撤 121
撿 121
桃 121
殿 121
泌 121
穌 121
蕩 121
軀 121
迦 121
僚 120
硫 120
辜 120
浩 119
癲 119
稚 119
堵 118
廟 118
澡 118
瘦 118
挨 117
札 117
株 117
皺 117
采 117
顫 117
努 116
墮 116
嵌 116
築 116
粘 116
= 115
坎 115
幟 115
沫 115
沼 115
猿 115
纜 115
菁 115
薇 115
隙 115
伺 114
庸 114
阱 114
á 113
拾 113
挽 113
枯 113
濟 113
覓 113
呈 112
啓 112
妒 112
脖 112
僵 111
哨 111
喇 111
奢 111
曝 111
浦 111
菇 111
辣 111
券 110
嫉 110
崗 110
槽 110
賄 110
鸚 110
帆 109
彗 109
栽 109
稻 109
飪 109
佐 108
刮 108
嫩 108
惹 108
熬 108
癇 108
砂 108
碩 108
艦 108
裹 108
鱷 108
侷 107
拇 107
敞 107
崛 106
慕 106
涼 106
燭 106
芒 106
函 105
宴 105
悠 105
攔 105
渺 105
滯 105
瓊 105
芽 105
茱 105
蔽 105
蕭 105
鴿 105
呃 104
喀 104
溪 104
瞭 104
窺 104
莖 104
逛 104
姨 103
廈 103
搏 103
擲 103
澱 103
盼 103
駱 103
抄 102
芙 102
逗 102
? 101
押 101
旺 101
沾 101
淘 101
膏 101
蜻 101
酶 101
駁 101
弓 100
楚 100
甸 100
癢 100
祭 100
笛 100
舍 100
悄 99
柬 98
疇 98
癡 98
鈔 98
个 97
厄 97
夕 97
皿 97
紮 97
鑑 97
頒 97
寡 96
扁 96
禽 96
萎 96
趾 96
饒 96
壘 95
枚 95
甦 95
蝶 95
蟑 95
貶 95
墳 94
屆 94
暈 94
爍 94
齣 94
妝 93
憫 93
曬 93
糙 93
緬 93
茁 93
蘊 93
輝 93
銜 93
拳 92
棚 92
眉 92
贖 92
「 91
撇 91
蜓 91
襯 91
虹 90
蝸 90
啥 89
寨 89
恒 89
檯 89
欖 89
焰 89
竹 89
虧 89
袍 89
賊 89
遣 89
僧 88
没 88
爪 88
狠 88
蟹 88
衫 88
賜 88
饑 88
岡 87
恤 87
淫 87
繳 87
侖 86
嚮 86
堤 86
摯 86
泄 86
倘 85
悖 85
肆 85
蘑 85
鉅 85
崖 84
爽 84
畝 84
叮 83
奎 83
憎 83
攪 83
橄 83
睜 83
穫 83
縛 83
聳 83
臣 83
酮 83
骯 83
ö 82
埔 82
盈 82
衆 82
襪 82
汰 81
舟 81
塘 80
妓 80
峻 80
彰 80
溺 80
紗 80
莓 80
裙 80
褐 80
靶 80
鳳 80
黴 80
○ 79
卜 79
姦 79
沸 79
疤 79
稽 79
鄙 79
靴 79
」 78
剔 78
嗡 78
妄 78
廂 78
烘 78
碌 78
繃 78
藤 78
馴 78
捍 77
杏 77
砰 77
酪 77
釣 77
陀 77
吼 76
恕 76
抉 76
斗 76
杰 76
淆 76
溢 76
瓣 76
輟 76
銘 76
鍾 76
閣 76
闖 76
勘 75
捏 75
鎊 75
弧 74
擷 74
曆 74
溉 74
瑣 74
甩 74
疚 74
痴 74
睪 74
茅 74
茫 74
蓮 74
馳 74
俯 73
勉 73
妨 73
娘 73
槳 73
氦 73
煞 73
瑰 73
舅 73
鴻 73
勸 72
嗜 72
嫌 72
杆 72
狩 72
嘗 71
忱 71
梨 71
檻 71
瀉 71
瑕 71
錫 71
鍋 71
鍛 71
頑 71
丙 70
卸 70
奠 70
廓 70
暑 70
椰 70
樞 70
氯 70
淪 70
炮 70
玫 70
矯 70
竄 70
竅 70
紡 70
缸 70
艷 70
鷲 70
嘔 69
嚨 69
潑 69
琪 69
産 69
碧 69
鋁 69
鋸 69
ㄧ 68
侈 68
噠 68
栓 68
疹 68
籬 68
蝴 68
侮 67
萃 67
迺 67
顱 67
唇 66
府 66
斐 66
淵 66
渾 66
疵 66
祉 66
虔 66
隕 66
鞭 66
俠 65
凹 65
匆 65
崙 65
慟 65
杖 65
淇 65
瞞 65
乖 64
懈 64
毅 64
氨 64
熵 64
聼 64
賂 64
鉤 64
隘 64
馭 64
唾 63
恭 63
悼 63
戳 63
攸 63
欽 63
槓 62
貯 62
‘ 61
匱 61
嘻 61
噓 61
嚼 61
婪 61
嬤 61
巔 61
斧 61
昭 61
沛 61
澆 61
煽 61
茂 61
鮭 61
叭 60
娶 60
渠 60
簾 60
菈 60
詛 60
豫 60
ó 59
亥 59
嗶 59
寞 59
帥 59
戮 59
椒 59
橙 59
櫚 59
澄 59
燙 59
簿 59
聰 59
苛 59
譴 59
鑄 59
鰭 59
兜 58
妖 58
懇 58
来 58
眨 58
貞 58
釀 58
鑒 58
霜 58
么 57
乞 57
匈 57
宇 57
掀 57
为 56
乍 56
倚 56
哎 56
孵 56
撓 56
瀑 56
灼 56
箏 56
羚 56
翠 56
萌 56
衞 56
赴 56
蹺 56
逸 56
陵 56
侯 55
凰 55
扛 55
枕 55
柵 55
渣 55
犀 55
謠 55
跋 55
轄 55
鈣 55
錐 55
閡 55
雛 55
) 54
傭 54
巷 54
憊 54
扼 54
瓷 54
盞 54
絨 54
臀 54
頃 54
梵 53
殆 53
汲 53
熄 53
絶 53
聾 53
趁 53
鈾 53
吶 52
坪 52
姪 52
嬉 52
栩 52
楊 52
歎 52
狸 52
瑜 52
砲 52
窒 52
絞 52
苯 52
訃 52
豔 52
郎 52
・ 51
咳 51
嗚 51
壟 51
娩 51
怯 51
愁 51
朋 51
朽 51
煎 51
瞰 51
賠 51
轍 51
迄 51
霄 51
馮 51
髖 51
〈 50
〉 50
仲 50
僑 50
冗 50
夸 50
屑 50
拙 50
斬 50
柄 50
檬 50
檸 50
漬 50
瀚 50
祥 50
螃 50
頰 50
傅 49
僻 49
吟 49
悍 49
惰 49
摒 49
昔 49
盃 49
綽 49
膩 49
蔥 49
誦 49
賤 49
_ 48
係 48
俘 48
剎 48
櫥 48
毋 48
炒 48
烯 48
狒 48
瞥 48
肘 48
蕊 48
蚌 48
豎 48
逢 48
遽 48
醣 48
姬 47
徘 47
洽 47
珀 47
腥 47
貘 47
飆 47
@ 46
佑 46
呵 46
壩 46
拐 46
柳 46
毆 46
漩 46
煌 46
牡 46
痊 46
竿 46
胱 46
踪 46
酋 46
鞏 46
刃 45
噩 45
圭 45
徊 45
搗 45
癥 45
繹 45
茸 45
蕃 45
賢 45
迥 45
餌 45
体 44
倭 44
匪 44
吱 44
孢 44
岌 44
拱 44
擱 44
晴 44
曠 44
泵 44
瀝 44
禪 44
稠 44
緯 44
縣 44
蠣 44
錦 44
閥 44
闢 44
髦 44
鬚 44
鱈 44
鹹 44
姥 43
掏 43
攣 43
昧 43
暱 43
滔 43
焚 43
牟 43
瞎 43
瞪 43
絆 43
綫 43
蜥 43
踝 43
魁 43
ç 42
è 42
侍 42
儒 42
嗝 42
悚 42
捩 42
搔 42
猝 42
獁 42
舖 42
芥 42
藩 42
霹 42
唔 41
喂 41
囑 41
奬 41
婁 41
狐 41
瘟 41
瞻 41
跪 41
釷 41
韻 41
〇 40
伎 40
僕 40
咎 40
咕 40
强 40
梁 40
澀 40
濱 40
燕 40
窘 40
肋 40
趴 40
蹦 40
蹲 40
逾 40
酗 40
鑿 40
ã 39
会 39
劾 39
唉 39
墟 39
岔 39
恍 39
搐 39
棺 39
淑 39
痙 39
盎 39
簧 39
蘆 39
誡 39
諜 39
酚 39
鈍 39
顎 39
嘶 38
彥 38
拌 38
榴 38
汐 38
涅 38
疆 38
癖 38
矚 38
紳 38
脾 38
范 38
蛻 38
蛾 38
蟎 38
蠶 38
賬 38
銬 38
靂 38
乒 37
侏 37
匣 37
梳 37
樁 37
樸 37
氟 37
睾 37
紊 37
繡 37
蔔 37
陡 37
丑 36
乓 36
凳 36
咀 36
啪 36
够 36
捫 36
斃 36
澈 36
瘡 36
綱 36
綻 36
締 36
証 36
諺 36
鋰 36
鐮 36
ï 35
〞 35
亟 35
凶 35
勻 35
哮 35
峭 35
慧 35
橢 35
檳 35
歪 35
殭 35
氾 35
猖 35
蜴 35
遏 35
霖 35
顳 35
ñ 34
噗 34
嚕 34
囪 34
屎 34
岳 34
峇 34
曙 34
橇 34
渥 34
綢 34
繆 34
繭 34
翹 34
腋 34
舔 34
葵 34
蔑 34
蕪 34
蠕 34
褪 34
訶 34
鏽 34
餚 34
餡 34
( 33
喧 33
懦 33
捧 33
晉 33
痲 33
穹 33
脣 33
舵 33
芯 33
螳 33
褶 33
諱 33
鏟 33
鑲 33
à 32
傍 32
哉 32
曳 32
沌 32
涸 32
漣 32
秉 32
秤 32
膛 32
芮 32
褻 32
说 32
鄭 32
閘 32
亭 31
卦 31
厘 31
崎 31
嶺 31
扉 31
时 31
朔 31
样 31
槌 31
江 31
湛 31
溼 31
漪 31
灶 31
狡 31
獗 31
痢 31
羨 31
芳 31
薛 31
輾 31
輿 31
轎 31
醃 31
鰻 31
° 30
俏 30
兌 30
嗽 30
揍 30
敍 30
梗 30
榨 30
洶 30
玄 30
瘠 30
繽 30
肽 30
菩 30
螈 30
袱 30
^ 29
仕 29
剃 29
哼 29
嚏 29
垢 29
墻 29
夭 29
廿 29
拭 29
紉 29
苔 29
蔗 29
蜷 29
蠑 29
贅 29
鄂 29
鈦 29
鎚 29
ä 28
咚 28
嗓 28
嘎 28
实 28
屢 28
汪 28
炙 28
燼 28
琢 28
矇 28
种 28
紓 28
肇 28
腱 28
芋 28
蚜 28
蚪 28
蝌 28
諦 28
蹂 28
躪 28
鉀 28
錘 28
骰 28
鶴 28
儉 27
咯 27
哄 27
婭 27
彭 27
憧 27
懾 27
攏 27
旭 27
晝 27
晦 27
烙 27
燦 27
眩 27
粥 27
翱 27
衹 27
裘 27
质 27
跤 27
釁 27
鐳 27
勳 26
咻 26
囤 26
寐 26
弭 26
憬 26
抨 26
撮 26
暇 26
棱 26
檀 26
爹 26
痘 26
痹 26
睫 26
硏 26
筏 26
胳 26
逕 26
鍍 26
鏢 26
闔 26
鞘 26
\ 25
俊 25
嘟 25
嚥 25
尉 25
惶 25
拷 25
沐 25
焊 25
瞳 25
碾 25
筍 25
綴 25
縈 25
蔭 25
蛀 25
蛤 25
赦 25
霉 25
顔 25
魟 25
鱗 25
鲁 25
鵡 25
鼬 25
< 24
> 24
ō 24
凋 24
卒 24
御 24
怡 24
挾 24
揣 24
攬 24
歹 24
甥 24
瘀 24
穗 24
窪 24
緝 24
膊 24
臆 24
臼 24
苷 24
莽 24
虜 24
蟀 24
蟋 24
詠 24
謗 24
譚 24
鄧 24
鎂 24
霰 24
魄 24
佬 23
决 23
劈 23
卿 23
啞 23
囂 23
墾 23
媲 23
惕 23
憋 23
抒 23
暨 23
暮 23
濺 23
瀰 23
现 23
畸 23
窯 23
臍 23
葫 23
詆 23
豌 23
踵 23
蹣 23
鈉 23
靡 23
鞍 23
魏 23
鯉 23
齋 23
ü 22
别 22
劉 22
唷 22
奥 22
寇 22
捆 22
梢 22
欸 22
濤 22
炬 22
焙 22
砌 22
礫 22
稜 22
簸 22
胜 22
茉 22
蕈 22
藹 22
螫 22
軼 22
邱 22
醯 22
釦 22
鋅 22
霾 22
餒 22
鮟 22
鱇 22
𥚃 22
㚈 21
云 21
俾 21
僥 21
勿 21
咆 21
嗒 21
屜 21
帖 21
徽 21
慚 21
扳 21
拴 21
掰 21
揉 21
摻 21
煥 21
猾 21
疽 21
眶 21
眺 21
睦 21
纂 21
膳 21
薑 21
蜒 21
蜿 21
袒 21
豁 21
跚 21
驢 21
鷗 21
× 20
亢 20
剷 20
啜 20
喲 20
嘈 20
嘍 20
婉 20
寢 20
嵗 20
嶇 20
怠 20
恙 20
拂 20
昌 20
枷 20
樺 20
熨 20
琉 20
睿 20
硝 20
簷 20
荼 20
蛆 20
褓 20
誨 20
蹄 20
辰 20
遼 20
酌 20
酯 20
醞 20
錮 20
魷 20
⁄ 19
● 19
佃 19
侃 19
冕 19
啃 19
啄 19
喃 19
嗑 19
圳 19
妲 19
嬌 19
孜 19
学 19
峙 19
敷 19
桅 19
氈 19
瀆 19
珈 19
疙 19
瘩 19
穢 19
篤 19
维 19
耽 19
肛 19
蘚 19
蟾 19
跛 19
迂 19
过 19
还 19
镜 19
黒 19
黯 19
* 18
兮 18
几 18
叨 18
喙 18
嘩 18
壕 18
宛 18
屹 18
幀 18
弈 18
忒 18
惘 18
斂 18
桂 18
榖 18
櫻 18
殯 18
濘 18
犁 18
狙 18
猥 18
眷 18
统 18
翩 18
聶 18
虞 18
蚤 18
蝨 18
蠍 18
誹 18
逍 18
遂 18
醛 18
间 18
α 17
发 17
堊 17
孝 17
幢 17
弔 17
柚 17
毁 17
涕 17
湍 17
琥 17
絃 17
絛 17
縷 17
耆 17
菊 17
蚓 17
蚯 17
蹋 17
远 17
遨 17
酥 17
醋 17
鉗 17
銹 17
頹 17
骷 17
髏 17
鰓 17
鼎 17
ā 16
― 16
从 16
倪 16
冀 16
吳 16
吾 16
咽 16
唬 16
啼 16
径 16
徐 16
揪 16
摹 16
擡 16
旬 16
杭 16
棠 16
瘁 16
瘍 16
睞 16
籽 16
粟 16
絢 16
綺 16
緹 16
胥 16
腓 16
臻 16
蔚 16
蜢 16
见 16
輒 16
逅 16
邂 16
閾 16
鬣 16
鯛 16
麪 16
β 15
π 15
俚 15
儂 15
动 15
变 15
吮 15
呻 15
咧 15
嘖 15
嚷 15
坍 15
媛 15
嫖 15
孰 15
寮 15
惦 15
抛 15
据 15
攫 15
昰 15
枉 15
楔 15
楷 15
横 15
淌 15
淩 15
潟 15
瘙 15
矢 15
礅 15
祟 15
簇 15
羣 15
羹 15
耙 15
蒲 15
蚱 15
辮 15
醚 15
鉭 15
錨 15
颱 15
麋 15
佼 14
冤 14
厥 14
咔 14
嗆 14
嚎 14
墅 14
宙 14
宫 14
寥 14
忡 14
斟 14
晾 14
柢 14
殃 14
滌 14
焉 14
熠 14
燉 14
琦 14
瑙 14
硼 14
箇 14
纳 14
细 14
羈 14
苟 14
觭 14
諳 14
謾 14
醺 14
馨 14
鳩 14
麩 14
ø 13
伶 13
侄 13
凈 13
却 13
吁 13
咨 13
处 13
奸 13
娓 13
媚 13
宕 13
帷 13
忿 13
惚 13
懊 13
懺 13
挹 13
摟 13
撩 13
曖 13
梟 13
楣 13
沁 13
淒 13
渲 13
漓 13
潢 13
窖 13
竇 13
笆 13
箔 13
箴 13
篡 13
縝 13
给 13
蔻 13
蛞 13
蛹 13
蜀 13
蜇 13
蝓 13
覷 13
豈 13
貽 13
迸 13
遛 13
鈳 13
錠 13
鐸 13
鐺 13
閹 13
闌 13
霓 13
餾 13
验 13
魘 13
黍 13
ù 12
ú 12
̇ 12
丐 12
丶 12
傀 12
儡 12
刹 12
卅 12
喋 12
垣 12
夯 12
奄 12
对 12
悴 12
愕 12
扒 12
揀 12
曦 12
毗 12
气 12
泯 12
滄 12
熾 12
燴 12
矗 12
砷 12
磺 12
絮 12
緘 12
约 12
脚 12
菍 12
蒜 12
蝗 12
蝟 12
詫 12
迭 12
遁 12
遑 12
题 12
鯡 12
; 11
® 11
ô 11
万 11
佇 11
佣 11
兀 11
关 11
冶 11
叩 11
咫 11
咸 11
嘮 11
噱 11
嚙 11
妊 11
娠 11
娼 11
宵 11
尔 11
惟 11
憔 11
扈 11
掐 11
搆 11
晤 11
殲 11
汚 11
汞 11
淤 11
濁 11
濛 11
炊 11
烴 11
狓 11
瓢 11
甄 11
甫 11
盹 11
祇 11
秦 11
篝 11
緞 11
繚 11
羔 11
胼 11
膿 11
芹 11
苣 11
萵 11
蔡 11
薰 11
藐 11
螨 11
襟 11
讲 11
貲 11
蹊 11
蹩 11
蹴 11
躬 11
迹 11
鉑 11
鑣 11
閲 11
隼 11
鞦 11
韆 11
© 10
ê 10
ë 10
ī 10
俐 10
儼 10
剋 10
勺 10
叟 10
咐 10
啵 10
啾 10
嘰 10
图 10
壅 10
妃 10
廝 10
捅 10
擧 10
数 10
朦 10
术 10
殉 10
殞 10
殷 10
瀾 10
瑯 10
畔 10
疣 10
瞠 10
箋 10
糰 10
缩 10
翡 10
胝 10
膈 10
臬 10
舶 10
芸 10
荊 10
菱 10
蒿 10
蛄 10
蛭 10
訕 10
贓 10
踱 10
轆 10
轨 10
进 10
遐 10
阳 10
陲 10
雹 10
静 10
頜 10
餬 10
駡 10
黝 10
〝 9
两 9
亙 9
俳 9
冉 9
剥 9
压 9
吝 9
吠 9
咿 9
哽 9
国 9
垠 9
幌 9
庶 9
当 9
徉 9
徜 9
忖 9
惻 9
憚 9
戾 9
拗 9
拽 9
揹 9
搓 9
擘 9
朧 9
棗 9
榻 9
樽 9
殻 9
氓 9
汶 9
滙 9
潦 9
澎 9
熙 9
燻 9
璨 9
痣 9
离 9
窠 9
綑 9
翌 9
膺 9
菠 9
藜 9
蜍 9
装 9
襄 9
踰 9
踴 9
运 9
鎳 9
霎 9
饉 9
饗 9
齦 9
齧 9
ì 8
δ 8
อ 8
东 8
丫 8
儸 8
兰 8
减 8
呐 8
呦 8
呲 8
啕 8
喳 8
噶 8
圃 8
妞 8
婊 8
孚 8
将 8
岱 8
幡 8
彆 8
徴 8
恣 8
恿 8
慫 8
憩 8
懨 8
戊 8
拈 8
拚 8
拮 8
攘 8
攢 8
敎 8
旼 8
暸 8
曰 8
杞 8
椋 8
榭 8
橈 8
毬 8
温 8
灸 8
熒 8
獺 8
獾 8
玲 8
璀 8
璐 8
甾 8
痠 8
睏 8
瞇 8
瞌 8
瞼 8
矣 8
祢 8
筷 8
糗 8
脉 8
脱 8
腮 8
茴 8
蔣 8
裴 8
詼 8
諭 8
譏 8
证 8
诉 8
賃 8
踮 8
躇 8
躊 8
軒 8
轅 8
逞 8
逹 8
邸 8
郭 8
鈎 8
鈷 8
鐐 8
鑷 8
银 8
际 8
鞠 8
鱒 8
鷄 8
仟 7
余 7
况 7
剽 7
劵 7
叼 7
呂 7
呱 7
咦 7
嗦 7
噎 7
囓 7
囘 7
囿 7
嫂 7
孑 7
孳 7
寻 7
层 7
崑 7
弛 7
彬 7
怦 7
愿 7
慄 7
慵 7
懵 7
捎 7
撬 7
无 7
暉 7
极 7
毎 7
湃 7
滕 7
牴 7
犛 7
状 7
瑩 7
癬 7
睬 7
磐 7
祐 7
祿 7
禾 7
綵 7
繕 7
红 7
结 7
罌 7
羥 7
耘 7
肼 7
胭 7
腑 7
芻 7
茵 7
葦 7
蕨 7
蜚 7
蝎 7
螯 7
袓 7
袤 7
裨 7
褸 7
襤 7
詰 7
誣 7
认 7
让 7
轻 7
邃 7
鈽 7
銻 7
颼 7
餃 7
鷸 7
ل 6
م 6
ي 6
亚 6
佯 6
倣 6
偎 6
单 6
卯 6
厨 6
叙 6
叠 6
呸 6
唵 6
喵 6
嗣 6
嗤 6
噥 6
噹 6
坨 6
坷 6
埸 6
壹 6
复 6
媳 6
嫻 6
孿 6
宝 6
崽 6
嵐 6
嵴 6
帚 6
幔 6
廄 6
开 6
彫 6
忑 6
愜 6
愣 6
战 6
捱 6
掂 6
摀 6
擄 6
擒 6
敝 6
斕 6
旳 6
査 6
栗 6
梆 6
椿 6
氚 6
浹 6
涌 6
涓 6
淖 6
满 6
濬 6
点 6
玷 6
琵 6
眈 6
磗 6
祸 6
稟 6
稼 6
粱 6
经 6
羯 6
肓 6
腴 6
苜 6
莢 6
蓉 6
蓿 6
蚣 6
蜈 6
蟬 6
衪 6
观 6
訇 6
訢 6
詡 6
諉 6
謨 6
话 6
该 6
貂 6
费 6
赭 6
踉 6
踹 6
蹌 6
蹭 6
輓 6
迢 6
遢 6
邋 6
釉 6
释 6
鉻 6
鋤 6
鎘 6
鏘 6
鐲 6
铃 6
键 6
閑 6
问 6
陛 6
难 6
靛 6
靨 6
颳 6
騖 6
髂 6
鮫 6
鯖 6
鴕 6
鵑 6
鵰 6
鷈 6
鷿 6
鹵 6
麟 6
黄 6
鼴 6
£ 5
¥ 5
â 5
ω 5
′ 5
与 5
亳 5
仅 5
佝 5
佷 5
俑 5
倔 5
僂 5
兹 5
勛 5
区 5
卉 5
吩 5
咄 5
咋 5
唆 5
唑 5
嘀 5
嚒 5
嚓 5
坤 5
塚 5
墉 5
婿 5
嬸 5
孓 5
寳 5
屌 5
屯 5
岑 5
帛 5
带 5
幗 5
应 5
廬 5
张 5
弩 5
忐 5
悸 5
惺 5
戎 5
户 5
摞 5
擰 5
斡 5
昴 5
曹 5
杓 5
枱 5
柑 5
桔 5
棧 5
楓 5
榔 5
榕 5
槃 5
樟 5
櫛 5
歴 5
氡 5
氪 5
测 5
涂 5
涇 5
涎 5
湮 5
潜 5
燎 5
牒 5
獠 5
琺 5
璇 5
璜 5
瓏 5
甕 5
疸 5
皈 5
睽 5
瞅 5
砧 5
碴 5
磕 5
祀 5
祼 5
积 5
稈 5
稔 5
窿 5
竣 5
竺 5
简 5
粕 5
縟 5
纽 5
组 5
终 5
缽 5
聿 5
胯 5
脛 5
舐 5
莞 5
葷 5
蕙 5
蛔 5
蜊 5
褥 5
謅 5
謐 5
论 5
试 5
谢 5
蹶 5
躡 5
軋 5
载 5
达 5
适 5
酣 5
酩 5
鈈 5
鈞 5
銫 5
鋃 5
鎢 5
鑚 5
鑼 5
霆 5
韁 5
须 5
餿 5
駿 5
騁 5
騾 5
鬃 5
鱖 5
鱸 5
麝 5
 5
` 4
ē 4
ˊ 4
س 4
ع 4
ย 4
ร 4
่ 4
‬ 4
▪ 4
佻 4
倏 4
僮 4
儿 4
冪 4
凜 4
刁 4
刋 4
匍 4
匐 4
匕 4
叱 4
吏 4
呤 4
咩 4
响 4
哢 4
啖 4
喷 4
嗇 4
嗖 4
嗷 4
噘 4
噤 4
围 4
圣 4
块 4
壆 4
娣 4
媾 4
嫚 4
嫺 4
宋 4
尹 4
岁 4
峨 4
巒 4
巖 4
帮 4
怀 4
怵 4
恬 4
悽 4
愫 4
戛 4
换 4
捶 4
揄 4
揶 4
搥 4
搧 4
撙 4
攆 4
曇 4
杳 4
桁 4
梧 4
樵 4
歿 4
氘 4
氰 4
汝 4
沓 4
浣 4
浬 4
淬 4
渭 4
熏 4
燧 4
爱 4
牀 4
犠 4
犢 4
猫 4
獃 4
獷 4
痂 4
痰 4
痾 4
瘸 4
癸 4
皙 4
盘 4
确 4
碘 4
礬 4
祆 4
祗 4
称 4
穏 4
粑 4
粼 4
糜 4
糢 4
緃 4
线 4
绍 4
绕 4
罗 4
羡 4
耦 4
节 4
苞 4
苺 4
茜 4
茹 4
萨 4
蒞 4
藴 4
蝿 4
螽 4
蟒 4
蠱 4
襁 4
覬 4
誒 4
謔 4
譁 4
譎 4
诺 4
贗 4
赢 4
跃 4
跩 4
跺 4
踞 4
踫 4
蹙 4
蹬 4
蹼 4
轤 4
较 4
郁 4
酊 4
鉚 4
銥 4
銲 4
鋨 4
鋯 4
錳 4
鎗 4
鎵 4
鏗 4
鐡 4
閂 4
隅 4
隷 4
雾 4
靚 4
頤 4
顴 4
顿 4
领 4
颗 4
髪 4
鱘 4
鳶 4
鵟 4
鹅 4
黜 4
鼾 4
龔 4
龕 4
! 3
 3
¡ 3
¿ 3
æ 3
ð 3
ʾ 3
ˋ 3
τ 3
в 3
о 3
ы 3
‭ 3
€ 3
ㄠ 3
ㄡ 3
㖿 3
争 3
产 3
仆 3
众 3
侧 3
僞 3
兴 3
冲 3
剌 3
剧 3
劊 3
匾 3
厮 3
参 3
吗 3
吭 3
唏 3
嘌 3
嘭 3
圴 3
堿 3
増 3
墩 3
壑 3
壬 3
头 3
奚 3
娌 3
婀 3
婴 3
婷 3
嫵 3
嬴 3
孀 3
孱 3
孽 3
导 3
尽 3
屣 3
岬 3
崁 3
巍 3
帑 3
帧 3
广 3
廸 3
异 3
弒 3
彤 3
彪 3
态 3
恫 3
惋 3
抺 3
拄 3
掮 3
携 3
搾 3
斋 3
暄 3
机 3
杠 3
柩 3
栿 3
桎 3
梏 3
椘 3
榚 3
榷 3
樍 3
檜 3
残 3
氬 3
沱 3
涷 3
渙 3
渝 3
滚 3
漱 3
漾 3
潸 3
澹 3
瀟 3
灯 3
烊 3
烽 3
燬 3
燿 3
猬 3
獼 3
玆 3
环 3
珉 3
璞 3
町 3
画 3
痿 3
瘴 3
癆 3
皰 3
盂 3
盗 3
盥 3
眀 3
眸 3
矜 3
矫 3
砥 3
秃 3
窈 3
窕 3
笙 3
笞 3
筑 3
箂 3
箍 3
箝 3
籟 3
籮 3
类 3
紕 3
紜 3
絀 3
綹 3
纔 3
续 3
缓 3
编 3
罈 3
罔 3
罝 3
联 3
腆 3
舆 3
舛 3
艮 3
莠 3
莱 3
萍 3
葱 3
蕁 3
蕯 3
薔 3
蚕 3
蛉 3
袐 3
裱 3
裳 3
覦 3
规 3
訛 3
訥 3
謄 3
譙 3
计 3
记 3
许 3
请 3
賑 3
赚 3
赞 3
跎 3
踨 3
蹉 3
酐 3
釜 3
鈀 3
鈹 3
銑 3
銨 3
鋌 3
録 3
鍁 3
鍥 3
鍰 3
鎝 3
鎧 3
针 3
长 3
閨 3
随 3
隠 3
隣 3
雯 3
靭 3
项 3
飞 3
饞 3
驍 3
鯷 3
鯽 3
鰲 3
鱂 3
鱔 3
鲔 3
鴯 3
鵲 3
鶓 3
鶩 3
鶯 3
鷺 3
麓 3
麴 3
鼩 3
{ 2
} 2
 2
î 2
ò 2
ć 2
ğ 2
ı 2
š 2
ǔ 2
̀ 2
γ 2
μ 2
σ 2
м 2
ة 2
د 2
ص 2
ط 2
ك 2
ن 2
ه 2
و 2
प 2
म 2
र 2
े 2
् 2
ḥ 2
ẹ 2
ọ 2
→ 2
∇ 2
− 2
∙ 2
⋅ 2
♯ 2
き 2
の 2
れ 2
ㄅ 2
ㄌ 2
ㄎ 2
丢 2
亲 2
亿 2
伕 2
佗 2
佘 2
俟 2
倂 2
偌 2
傌 2
傚 2
僈 2
儍 2
党 2
兢 2
养 2
凯 2
刈 2
刨 2
剁 2
卍 2
卧 2
厠 2
厰 2
吒 2
吓 2
吖 2
员 2
咂 2
啁 2
啉 2
啶 2
喏 2
嚢 2
囔 2
囗 2
囧 2
圑 2
场 2
声 2
奐 2
奖 2
妁 2
妍 2
妾 2
姚 2
嫰 2
宽 2
寛 2
寰 2
岀 2
岐 2
峡 2
嶽 2
师 2
弹 2
徧 2
徨 2
徳 2
忤 2
怔 2
怙 2
总 2
悵 2
悻 2
惯 2
惴 2
憨 2
戕 2
戯 2
扙 2
扺 2
担 2
拎 2
挂 2
挐 2
掣 2
搪 2
摰 2
擂 2
擕 2
擤 2
擯 2
断 2
昵 2
显 2
晒 2
晷 2
暹 2
曜 2
曽 2
朶 2
杂 2
杵 2
枪 2
枰 2
柺 2
柿 2
桉 2
梠 2
楦 2
槐 2
様 2
樊 2
欢 2
欧 2
歛 2
歩 2
歳 2
殄 2
氂 2
氖 2
氙 2
沬 2
泅 2
洐 2
淂 2
淮 2
渐 2
渤 2
溴 2
滂 2
潺 2
濳 2
瀨 2
烱 2
煦 2
煲 2
燄 2
犒 2
犰 2
狳 2
狽 2
猪 2
玳 2
珂 2
琶 2
瑁 2
瑋 2
璧 2
甯 2
电 2
疝 2
疥 2
痍 2
痤 2
痼 2
瘻 2
瘾 2
癟 2
眇 2
矞 2
码 2
硅 2
硒 2
碁 2
碉 2
秏 2
稳 2
窥 2
竽 2
筐 2
筛 2
籓 2
糅 2
糠 2
紈 2
緲 2
縶 2
縹 2
纍 2
级 2
纸 2
纹 2
绝 2
继 2
缐 2
缚 2
缝 2
罂 2
羸 2
耹 2
耿 2
聴 2
胛 2
脢 2
膾 2
臃 2
臊 2
舀 2
舷 2
芘 2
苑 2
荀 2
莾 2
菡 2
萋 2
葩 2
葺 2
蓝 2
薈 2
藪 2
虽 2
蚩 2
蚵 2
蚺 2
蜉 2
蝣 2
螅 2
袞 2
裇 2
褒 2
褔 2
褫 2
褺 2
襞 2
覲 2
觴 2
訌 2
訐 2
詣 2
諄 2
諢 2
识 2
诏 2
豺 2
賁 2
賅 2
负 2
资 2
赖 2
赛 2
赧 2
踽 2
蹓 2
躂 2
躉 2
躋 2
躥 2
軛 2
輊 2
轂 2
转 2
输 2
辟 2
边 2
釙 2
鉆 2
鉸 2
鍺 2
鎬 2
鐧 2
閔 2
関 2
闗 2
门 2
阪 2
雋 2
靦 2
韃 2
韜 2
頦 2
页 2
顺 2
预 2
飴 2
餽 2
饈 2
饌 2
饕 2
馥 2
駒 2
髋 2
髯 2
髻 2
鬨 2
鯁 2
鯰 2
鰺 2
鲜 2
鵐 2
鵜 2
鶇 2
鶘 2
鶥 2
鸛 2
鹰 2
麾 2
黠 2
黽 2
齙 2
齲 2
 1
¢ 1
¤ 1
« 1
­ 1
¶ 1
» 1
å 1
û 1
ă 1
č 1
ě 1
ť 1
ū 1
ż 1
ǐ 1
ǒ 1
̊ 1
θ 1
φ 1
χ 1
а 1
и 1
н 1
п 1
р 1
с 1
х 1
∞ 1
⋄ 1
ね 1
ㄇ 1
ㄉ 1
ㄍ 1
ㄐ 1
ㄑ 1
ㄙ 1
ㄜ 1
ㄝ 1
ㄞ 1
ㄢ 1
ㄣ 1
ㄨ 1
㝷 1
㿂 1
䀚 1
䐘 1
䓬 1
䕶 1
业 1
严 1
丰 1
丼 1
丽 1
举 1
义 1
习 1
书 1
亜 1
仃 1
仵 1
伉 1
传 1
佪 1
侗 1
侘 1
俎 1
俢 1
俬 1
俸 1
倌 1
値 1
倥 1
倩 1
债 1
倾 1
偃 1
偋 1
偕 1
偣 1
傋 1
储 1
傯 1
傹 1
儅 1
儖 1
儷 1
兑 1
冋 1
冏 1
冻 1
冽 1
凄 1
凅 1
凑 1
処 1
凴 1
刚 1
删 1
刼 1
剂 1
剰 1
剿 1
办 1
务 1
匝 1
匡 1
医 1
华 1
卹 1
双 1
叵 1
号 1
吆 1
吔 1
听 1
启 1
吲 1
吽 1
吿 1
呯 1
咤 1
哆 1
哌 1
唁 1
唄 1
啐 1
啷 1
喫 1
嗄 1
嗞 1
嗪 1
嘣 1
嘸 1
噌 1
噙 1
噵 1
噼 1
嚀 1
嚯 1
囀 1
囌 1
囍 1
囫 1
囯 1
囹 1
圄 1
圆 1
圇 1
圏 1
圜 1
圮 1
坚 1
坵 1
垏 1
垛 1
垫 1
垻 1
埗 1
埠 1
堇 1
堰 1
塭 1
塲 1
墙 1
墬 1
壙 1
夀 1
奋 1
奕 1
奘 1
奨 1
奻 1
妠 1
妺 1
姍 1
姣 1
姱 1
姶 1
娱 1
婢 1
媞 1
媮 1
嬅 1
嬗 1
嬡 1
嬬 1
孃 1
寿 1
専 1
尅 1
尓 1
尘 1
尙 1
尻 1
屄 1
屝 1
岛 1
峋 1
峍 1
峛 1
峯 1
崴 1
嶋 1
嶙 1
巳 1
巿 1
帘 1
幷 1
庄 1
庚 1
庳 1
庵 1
廖 1
廩 1
廰 1
廻 1
弋 1
弘 1
录 1
彻 1
徇 1
徠 1
徦 1
徬 1
忝 1
怏 1
恪 1
悦 1
惆 1
惓 1
惧 1
惬 1
愄 1
愴 1
慍 1
慼 1
憟 1
懐 1
懟 1
懣 1
戍 1
戟 1
扑 1
扞 1
扦 1
报 1
抻 1
拣 1
择 1
挈 1
挲 1
挷 1
捚 1
捺 1
掦 1
揆 1
揑 1
揩 1
搽 1
摃 1
摆 1
摑 1
摖 1
摳 1
撚 1
撢 1
撻 1
擻 1
攥 1
敕 1
敖 1
斁 1
旎 1
旖 1
旧 1
昜 1
晩 1
暦 1
暪 1
朕 1
朴 1
条 1
杲 1
构 1
枒 1
枓 1
枸 1
柝 1
标 1
桀 1
桐 1
梉 1
棣 1
椴 1
椽 1
楕 1
楞 1
楠 1
榆 1
榛 1
榫 1
槁 1
槨 1
槪 1
槲 1
橐 1
檐 1
櫸 1
欉 1
殛 1
殤 1
殫 1
殮 1
毽 1
氢 1
汛 1
沅 1
沏 1
沽 1
洄 1
洌 1
洟 1
洮 1
浙 1
浼 1
涡 1
湄 1
溃 1
滓 1
漥 1
潇 1
潭 1
澍 1
澗 1
濒 1
濔 1
濡 1
瀘 1
炳 1
热 1
焗 1
煨 1
煱 1
燜 1
牝 1
犄 1
犎 1
狭 1
猁 1
猎 1
猙 1
猞 1
獒 1
獰 1
玀 1
玃 1
玖 1
珐 1
珞 1
珣 1
珥 1
珮 1
珼 1
瑤 1
璄 1
璣 1
璽 1
瓔 1
瓞 1
瓿 1
甪 1
畦 1
疪 1
痁 1
痱 1
瘉 1
瘺 1
癈 1
癩 1
癵 1
皱 1
皸 1
盅 1
盖 1
眊 1
眯 1
瞟 1
矓 1
碇 1
碸 1
磊 1
磋 1
磧 1
礪 1
祛 1
禀 1
秣 1
秧 1
稣 1
稹 1
穠 1
窍 1
窣 1
窳 1
窸 1
竪 1
竸 1
笈 1
笫 1
筫 1
筱 1
筵 1
篆 1
篙 1
篾 1
簌 1
簍 1
簟 1
簣 1
簪 1
籐 1
籥 1
粖 1
粧 1
粪 1
粵 1
糸 1
紂 1
紿 1
絹 1
綣 1
綳 1
綷 1
綸 1
緋 1
緖 1
縂 1
縐 1
縳 1
繈 1
繮 1
纈 1
纒 1
纓 1
纤 1
纪 1
纵 1
绒 1
绩 1
绪 1
绳 1
绿 1
缅 1
缉 1
缪 1
缷 1
罄 1
罅 1
网 1
罸 1
羌 1
羧 1
羲 1
羶 1
翕 1
耄 1
耪 1
聒 1
聵 1
肮 1
肱 1
肴 1
胆 1
胍 1
胴 1
胶 1
脇 1
脗 1
脯 1
腈 1
腚 1
腩 1
腼 1
膁 1
膘 1
臚 1
臧 1
舎 1
艄 1
艏 1
芉 1
芦 1
苏 1
苒 1
茍 1
荏 1
荖 1
荻 1
莘 1
获 1
菏 1
菓 1
萸 1
葆 1
葚 1
葧 1
蒡 1
蓆 1
蔕 1
蕎 1
蕞 1
蕴 1
薊 1
薏 1
藕 1
蘶 1
蘸 1
蚝 1
蚶 1
蛸 1
蜃 1
蜣 1
蜱 1
螬 1
螻 1
蟄 1
蟆 1
蟳 1
蠋 1
蠐 1
蠔 1
蠵 1
蠹 1
衊 1
袈 1
裊 1
裟 1
褂 1
褙 1
襌 1
襠 1
襬 1
覇 1
覈 1
视 1
觎 1
訖 1
詔 1
詬 1
詺 1
誅 1
誆 1
誑 1
誔 1
諂 1
諤 1
諫 1
譟 1
譠 1
讉 1
讖 1
讞 1
设 1
评 1
诊 1
诠 1
语 1
谈 1
谧 1
豢 1
貉 1
貎 1
賍 1
賒 1
贋 1
责 1
贾 1
赠 1
赶 1
趙 1
踡 1
踼 1
躱 1
輞 1
轶 1
辈 1
辍 1
辐 1
辫 1
违 1
迧 1
迼 1
逄 1
选 1
递 1
逬 1
逰 1
遥 1
邑 1
邻 1
郝 1
郷 1
酰 1
醅 1
醍 1
醐 1
醪 1
釒 1
釓 1
釩 1
鈧 1
鈸 1
鉈 1
鉍 1
鉬 1
鉺 1
銓 1
銙 1
銣 1
鋇 1
鋥 1
錸 1
鍆 1
鍬 1
鏤 1
鏨 1
鐙 1
钱 1
钴 1
铁 1
铆 1
铠 1
锋 1
错 1
锥 1
閏 1
閤 1
閻 1
闋 1
闐 1
闕 1
队 1
阮 1
阶 1
陃 1
陞 1
险 1
隂 1
隄 1
隋 1
隐 1
隡 1
隴 1
雁 1
雉 1
雍 1
霑 1
靼 1
鞣 1
韵 1
頽 1
顉 1
顥 1
颂 1
颐 1
颤 1
颯 1
飈 1
飊 1
风 1
飩 1
餇 1
餋 1
餛 1
餞 1
餧 1
饜 1
馀 1
駄 1
駑 1
駙 1
騃 1
驁 1
驛 1
骑 1
鬈 1
鬢 1
鬩 1
鮋 1
鰈 1
鰤 1
鰥 1
鰩 1
鰹 1
鱉 1
鱼 1
鲍 1
鲸 1
鳊 1
鳍 1
鳯 1
鴇 1
鴐 1
鴞 1
鴣 1
鴴 1
鶲 1
鶼 1
鷓 1
鸌 1
鼯 1
鼹 1
齜 1
齪 1
齷 1
龄 1
﨧 1
𤔡 1
madeupword0000 0
madeupword0001 0
madeupword0002 0
madeupword0003 0
madeupword0004 0
